<pad>	0
<s>	0
</s>	0
<unk>	0
<|system|>	0
<|user|>	0
<|assistant|>	0
<0x00>	0
<0x01>	0
<0x02>	0
<0x03>	0
<0x04>	0
<0x05>	0
<0x06>	0
<0x07>	0
<0x08>	0
<0x09>	0
<0x0A>	0
<0x0B>	0
<0x0C>	0
<0x0D>	0
<0x0E>	0
<0x0F>	0
<0x10>	0
<0x11>	0
<0x12>	0
<0x13>	0
<0x14>	0
<0x15>	0
<0x16>	0
<0x17>	0
<0x18>	0
<0x19>	0
<0x1A>	0
<0x1B>	0
<0x1C>	0
<0x1D>	0
<0x1E>	0
<0x1F>	0
<0x20>	0
<0x21>	0
<0x22>	0
<0x23>	0
<0x24>	0
<0x25>	0
<0x26>	0
<0x27>	0
<0x28>	0
<0x29>	0
<0x2A>	0
<0x2B>	0
<0x2C>	0
<0x2D>	0
<0x2E>	0
<0x2F>	0
<0x30>	0
<0x31>	0
<0x32>	0
<0x33>	0
<0x34>	0
<0x35>	0
<0x36>	0
<0x37>	0
<0x38>	0
<0x39>	0
<0x3A>	0
<0x3B>	0
<0x3C>	0
<0x3D>	0
<0x3E>	0
<0x3F>	0
<0x40>	0
<0x41>	0
<0x42>	0
<0x43>	0
<0x44>	0
<0x45>	0
<0x46>	0
<0x47>	0
<0x48>	0
<0x49>	0
<0x4A>	0
<0x4B>	0
<0x4C>	0
<0x4D>	0
<0x4E>	0
<0x4F>	0
<0x50>	0
<0x51>	0
<0x52>	0
<0x53>	0
<0x54>	0
<0x55>	0
<0x56>	0
<0x57>	0
<0x58>	0
<0x59>	0
<0x5A>	0
<0x5B>	0
<0x5C>	0
<0x5D>	0
<0x5E>	0
<0x5F>	0
<0x60>	0
<0x61>	0
<0x62>	0
<0x63>	0
<0x64>	0
<0x65>	0
<0x66>	0
<0x67>	0
<0x68>	0
<0x69>	0
<0x6A>	0
<0x6B>	0
<0x6C>	0
<0x6D>	0
<0x6E>	0
<0x6F>	0
<0x70>	0
<0x71>	0
<0x72>	0
<0x73>	0
<0x74>	0
<0x75>	0
<0x76>	0
<0x77>	0
<0x78>	0
<0x79>	0
<0x7A>	0
<0x7B>	0
<0x7C>	0
<0x7D>	0
<0x7E>	0
<0x7F>	0
<0x80>	0
<0x81>	0
<0x82>	0
<0x83>	0
<0x84>	0
<0x85>	0
<0x86>	0
<0x87>	0
<0x88>	0
<0x89>	0
<0x8A>	0
<0x8B>	0
<0x8C>	0
<0x8D>	0
<0x8E>	0
<0x8F>	0
<0x90>	0
<0x91>	0
<0x92>	0
<0x93>	0
<0x94>	0
<0x95>	0
<0x96>	0
<0x97>	0
<0x98>	0
<0x99>	0
<0x9A>	0
<0x9B>	0
<0x9C>	0
<0x9D>	0
<0x9E>	0
<0x9F>	0
<0xA0>	0
<0xA1>	0
<0xA2>	0
<0xA3>	0
<0xA4>	0
<0xA5>	0
<0xA6>	0
<0xA7>	0
<0xA8>	0
<0xA9>	0
<0xAA>	0
<0xAB>	0
<0xAC>	0
<0xAD>	0
<0xAE>	0
<0xAF>	0
<0xB0>	0
<0xB1>	0
<0xB2>	0
<0xB3>	0
<0xB4>	0
<0xB5>	0
<0xB6>	0
<0xB7>	0
<0xB8>	0
<0xB9>	0
<0xBA>	0
<0xBB>	0
<0xBC>	0
<0xBD>	0
<0xBE>	0
<0xBF>	0
<0xC0>	0
<0xC1>	0
<0xC2>	0
<0xC3>	0
<0xC4>	0
<0xC5>	0
<0xC6>	0
<0xC7>	0
<0xC8>	0
<0xC9>	0
<0xCA>	0
<0xCB>	0
<0xCC>	0
<0xCD>	0
<0xCE>	0
<0xCF>	0
<0xD0>	0
<0xD1>	0
<0xD2>	0
<0xD3>	0
<0xD4>	0
<0xD5>	0
<0xD6>	0
<0xD7>	0
<0xD8>	0
<0xD9>	0
<0xDA>	0
<0xDB>	0
<0xDC>	0
<0xDD>	0
<0xDE>	0
<0xDF>	0
<0xE0>	0
<0xE1>	0
<0xE2>	0
<0xE3>	0
<0xE4>	0
<0xE5>	0
<0xE6>	0
<0xE7>	0
<0xE8>	0
<0xE9>	0
<0xEA>	0
<0xEB>	0
<0xEC>	0
<0xED>	0
<0xEE>	0
<0xEF>	0
<0xF0>	0
<0xF1>	0
<0xF2>	0
<0xF3>	0
<0xF4>	0
<0xF5>	0
<0xF6>	0
<0xF7>	0
<0xF8>	0
<0xF9>	0
<0xFA>	0
<0xFB>	0
<0xFC>	0
<0xFD>	0
<0xFE>	0
<0xFF>	0
▁t	-0
▁a	-1
he	-2
in	-3
re	-4
▁the	-5
▁o	-6
er	-7
on	-8
at	-9
▁s	-10
en	-11
▁c	-12
es	-13
▁w	-14
is	-15
nd	-16
or	-17
it	-18
▁p	-19
al	-20
ed	-21
▁of	-22
▁b	-23
▁f	-24
an	-25
▁in	-26
ar	-27
ing	-28
ou	-29
▁m	-30
▁and	-31
ic	-32
▁to	-33
ion	-34
▁d	-35
ro	-36
le	-37
as	-38
▁h	-39
ent	-40
▁th	-41
ct	-42
il	-43
▁e	-44
▁re	-45
▁T	-46
om	-47
▁n	-48
▁l	-49
ve	-50
st	-51
ly	-52
▁be	-53
▁A	-54
▁is	-55
ol	-56
se	-57
ation	-58
▁S	-59
▁g	-60
id	-61
im	-62
ce	-63
ut	-64
et	-65
ra	-66
ot	-67
ur	-68
▁I	-69
▁C	-70
ch	-71
▁for	-72
ow	-73
ig	-74
▁on	-75
▁that	-76
▁u	-77
ver	-78
▁The	-79
▁st	-80
ir	-81
am	-82
ul	-83
ay	-84
el	-85
▁M	-86
ad	-87
▁as	-88
her	-89
ith	-90
▁pro	-91
▁y	-92
▁P	-93
▁con	-94
▁(	-95
▁an	-96
▁are	-97
▁with	-98
▁wh	-99
▁or	-100
ter	-101
if	-102
▁B	-103
▁it	-104
od	-105
▁al	-106
ment	-107
ist	-108
th	-109
ge	-110
op	-111
▁H	-112
▁W	-113
ate	-114
ers	-115
▁de	-116
ies	-117
ab	-118
ill	-119
▁he	-120
▁su	-121
▁ex	-122
▁D	-123
ere	-124
ore	-125
▁you	-126
us	-127
est	-128
ect	-129
▁by	-130
ess	-131
▁F	-132
▁R	-133
rom	-134
▁com	-135
res	-136
ity	-137
▁E	-138
os	-139
ld	-140
um	-141
ac	-142
▁-	-143
▁ha	-144
▁at	-145
ri	-146
em	-147
▁v	-148
▁N	-149
▁was	-150
ive	-151
nt	-152
ain	-153
qu	-154
ant	-155
▁from	-156
igh	-157
pp	-158
ke	-159
ud	-160
and	-161
▁G	-162
ci	-163
▁L	-164
ort	-165
iv	-166
▁ch	-167
▁se	-168
▁ne	-169
▁r	-170
▁not	-171
ical	-172
art	-173
ure	-174
un	-175
▁can	-176
▁have	-177
▁O	-178
og	-179
▁le	-180
▁sp	-181
▁sh	-182
▁In	-183
all	-184
ich	-185
▁en	-186
ight	-187
▁this	-188
pt	-189
ther	-190
▁ab	-191
rou	-192
▁J	-193
ould	-194
ost	-195
gh	-196
▁"	-197
▁U	-198
our	-199
ated	-200
ions	-201
ear	-202
ome	-203
▁wor	-204
oc	-205
ine	-206
du	-207
ag	-208
ard	-209
▁we	-210
out	-211
ell	-212
ast	-213
▁im	-214
ff	-215
per	-216
ans	-217
▁us	-218
▁pl	-219
▁int	-220
▁which	-221
▁their	-222
pl	-223
act	-224
ally	-225
ew	-226
ust	-227
age	-228
ous	-229
▁Th	-230
ak	-231
so	-232
▁k	-233
are	-234
▁whe	-235
ide	-236
iz	-237
▁cont	-238
ib	-239
ia	-240
ary	-241
▁they	-242
▁inc	-243
▁dis	-244
ap	-245
cc	-246
▁all	-247
ood	-248
▁ad	-249
ult	-250
end	-251
ong	-252
ru	-253
ations	-254
▁so	-255
▁res	-256
▁more	-257
orm	-258
▁has	-259
vel	-260
▁will	-261
▁comp	-262
▁were	-263
ater	-264
▁do	-265
▁other	-266
ire	-267
ild	-268
ence	-269
▁but	-270
▁cl	-271
▁per	-272
▁St	-273
ec	-274
▁man	-275
ks	-276
able	-277
ry	-278
ial	-279
▁one	-280
ip	-281
ose	-282
ind	-283
ber	-284
▁your	-285
ep	-286
au	-287
▁me	-288
ance	-289
reat	-290
▁his	-291
ress	-292
ign	-293
ase	-294
ach	-295
ents	-296
av	-297
▁ar	-298
ass	-299
▁un	-300
ord	-301
ish	-302
▁also	-303
▁te	-304
▁who	-305
▁K	-306
ction	-307
ition	-308
ory	-309
▁pre	-310
ice	-311
).	-312
▁part	-313
ame	-314
ub	-315
ount	-316
ace	-317
▁j	-318
▁imp	-319
▁app	-320
▁ev	-321
▁inf	-322
mer	-323
▁out	-324
▁about	-325
ake	-326
▁“	-327
ens	-328
one	-329
▁Ch	-330
ok	-331
▁stud	-332
▁may	-333
very	-334
ime	-335
ite	-336
ack	-337
ound	-338
▁It	-339
ors	-340
olog	-341
▁than	-342
▁sy	-343
ree	-344
▁pe	-345
ces	-346
ric	-347
▁year	-348
ian	-349
▁This	-350
ates	-351
ie	-352
ue	-353
ang	-354
▁been	-355
▁V	-356
▁up	-357
▁bec	-358
low	-359
▁comm	-360
now	-361
▁them	-362
vers	-363
erv	-364
ays	-365
ail	-366
▁ag	-367
▁its	-368
▁some	-369
ike	-370
ile	-371
▁had	-372
▁rec	-373
ph	-374
▁qu	-375
ough	-376
ople	-377
nder	-378
ings	-379
pe	-380
▁there	-381
▁into	-382
▁ra	-383
ons	-384
lud	-385
▁go	-386
▁Y	-387
▁when	-388
iff	-389
tern	-390
ren	-391
▁sa	-392
ms	-393
rit	-394
ond	-395
▁tra	-396
▁over	-397
▁Un	-398
▁these	-399
ll	-400
ual	-401
ational	-402
lic	-403
▁col	-404
rough	-405
▁would	-406
irst	-407
▁time	-408
ause	-409
▁tw	-410
int	-411
ove	-412
▁new	-413
▁people	-414
▁cons	-415
▁work	-416
red	-417
ject	-418
▁ro	-419
ific	-420
▁bl	-421
▁most	-422
lect	-423
ys	-424
te	-425
ments	-426
▁use	-427
hed	-428
▁des	-429
▁gen	-430
▁act	-431
..	-432
▁under	-433
▁bet	-434
▁such	-435
▁how	-436
we	-437
▁diff	-438
les	-439
velop	-440
ities	-441
),	-442
▁acc	-443
▁includ	-444
▁rel	-445
row	-446
stem	-447
alth	-448
▁no	-449
▁know	-450
ook	-451
▁rep	-452
▁if	-453
ple	-454
▁any	-455
▁child	-456
▁only	-457
▁He	-458
ced	-459
▁tr	-460
ious	-461
▁first	-462
▁eff	-463
▁like	-464
▁prov	-465
ool	-466
▁ph	-467
ov	-468
▁off	-469
ning	-470
iss	-471
ob	-472
cial	-473
ative	-474
fter	-475
▁am	-476
▁two	-477
ular	-478
rib	-479
▁used	-480
▁ind	-481
ied	-482
▁produ	-483
▁develop	-484
ath	-485
▁our	-486
erm	-487
ating	-488
▁many	-489
▁ob	-490
▁As	-491
ark	-492
▁what	-493
▁sc	-494
▁need	-495
ise	-496
ics	-497
▁exp	-498
▁reg	-499
als	-500
oss	-501
▁through	-502
cess	-503
ts	-504
▁sur	-505
▁po	-506
uring	-507
ne	-508
arch	-509
uc	-510
▁Wh	-511
round	-512
ble	-513
old	-514
▁fe	-515
▁system	-516
▁years	-517
▁ac	-518
meric	-519
▁att	-520
▁em	-521
aw	-522
ram	-523
▁dec	-524
ng	-525
▁pr	-526
oth	-527
ert	-528
▁sub	-529
cy	-530
ink	-531
▁fl	-532
hen	-533
ures	-534
ased	-535
ange	-536
ited	-537
▁hel	-538
ten	-539
ible	-540
ution	-541
ful	-542
▁co	-543
▁add	-544
▁rem	-545
ade	-546
ife	-547
▁Americ	-548
land	-549
ower	-550
fore	-551
▁supp	-552
▁pres	-553
ility	-554
ists	-555
sel	-556
ween	-557
▁help	-558
▁di	-559
gan	-560
▁should	-561
▁rese	-562
▁differe	-563
eth	-564
hes	-565
own	-566
▁inv	-567
▁could	-568
▁water	-569
▁sm	-570
ered	-571
▁ear	-572
uch	-573
▁between	-574
▁said	-575
▁Al	-576
ily	-577
ormation	-578
▁well	-579
▁|	-580
wn	-581
▁Re	-582
ology	-583
ident	-584
▁high	-585
chool	-586
▁where	-587
ick	-588
▁spec	-589
▁pol	-590
ural	-591
ract	-592
▁num	-593
▁found	-594
▁Pro	-595
▁form	-596
its	-597
xt	-598
ants	-599
ever	-600
ines	-601
▁her	-602
▁lar	-603
ont	-604
▁inter	-605
cer	-606
▁inst	-607
ivers	-608
▁cent	-609
▁trans	-610
ism	-611
▁For	-612
ict	-613
▁after	-614
▁mod	-615
ually	-616
ins	-617
."	-618
▁An	-619
▁If	-620
ft	-621
▁bu	-622
▁call	-623
▁ed	-624
▁pub	-625
▁pers	-626
urn	-627
▁count	-628
▁ref	-629
gy	-630
▁long	-631
iew	-632
▁prog	-633
chn	-634
▁exam	-635
▁We	-636
cept	-637
▁because	-638
ved	-639
▁those	-640
▁health	-641
▁med	-642
cent	-643
ps	-644
other	-645
itt	-646
▁gener	-647
vent	-648
▁Com	-649
▁then	-650
▁det	-651
ature	-652
▁make	-653
▁world	-654
▁car	-655
▁effect	-656
▁very	-657
▁sim	-658
vern	-659
oy	-660
ness	-661
▁incre	-662
▁New	-663
▁get	-664
▁even	-665
▁import	-666
▁just	-667
▁hum	-668
▁fol	-669
▁information	-670
▁disc	-671
▁ext	-672
▁ty	-673
▁see	-674
▁loc	-675
ically	-676
▁resp	-677
▁sign	-678
get	-679
▁sci	-680
ds	-681
▁Ar	-682
▁dist	-683
▁gra	-684
ather	-685
arm	-686
ck	-687
▁result	-688
▁def	-689
ases	-690
▁each	-691
▁children	-692
▁mon	-693
▁sec	-694
ues	-695
▁ca	-696
▁pat	-697
▁partic	-698
ork	-699
led	-700
ives	-701
▁var	-702
▁different	-703
ata	-704
▁way	-705
▁spe	-706
▁fact	-707
▁ass	-708
▁But	-709
ages	-710
ety	-711
orn	-712
▁How	-713
aking	-714
▁fam	-715
imes	-716
▁much	-717
▁during	-718
▁exper	-719
▁ent	-720
▁being	-721
▁she	-722
▁set	-723
iron	-724
▁study	-725
ef	-726
ized	-727
▁made	-728
▁same	-729
ros	-730
▁follow	-731
▁dep	-732
▁aut	-733
ward	-734
▁ke	-735
.,	-736
▁requ	-737
▁every	-738
▁art	-739
ruct	-740
onom	-741
,"	-742
und	-743
iversity	-744
▁right	-745
ection	-746
▁grou	-747
▁They	-748
▁test	-749
ished	-750
ince	-751
▁life	-752
▁own	-753
gg	-754
▁commun	-755
ars	-756
▁hist	-757
▁proble	-758
ex	-759
ty	-760
ale	-761
▁There	-762
ody	-763
||	-764
any	-765
iel	-766
▁pop	-767
▁level	-768
▁cre	-769
▁school	-770
omen	-771
▁av	-772
▁my	-773
▁small	-774
▁end	-775
▁techn	-776
▁him	-777
▁find	-778
▁process	-779
ices	-780
hem	-781
▁state	-782
▁does	-783
oh	-784
▁before	-785
io	-786
ran	-787
▁both	-788
▁occ	-789
ined	-790
▁read	-791
▁lead	-792
▁again	-793
▁cur	-794
read	-795
ize	-796
▁Ind	-797
▁Se	-798
ting	-799
ix	-800
ute	-801
▁treat	-802
▁food	-803
▁show	-804
▁back	-805
irect	-806
imate	-807
hip	-808
ury	-809
nce	-810
▁now	-811
inal	-812
▁min	-813
form	-814
▁appro	-815
▁–	-816
ock	-817
▁important	-818
viron	-819
rol	-820
▁ins	-821
▁lear	-822
ergy	-823
▁expl	-824
▁str	-825
▁ec	-826
▁number	-827
▁dise	-828
ah	-829
▁students	-830
▁person	-831
▁grow	-832
▁mem	-833
ax	-834
▁bo	-835
ven	-836
hers	-837
▁Sp	-838
▁provid	-839
▁gl	-840
▁sk	-841
▁comple	-842
▁serv	-843
▁govern	-844
▁report	-845
ral	-846
▁research	-847
▁less	-848
▁And	-849
▁est	-850
▁poss	-851
ient	-852
▁So	-853
▁good	-854
▁cell	-855
▁three	-856
ier	-857
ving	-858
▁often	-859
ected	-860
ters	-861
der	-862
▁Is	-863
▁ris	-864
.”	-865
ivid	-866
air	-867
ulation	-868
ves	-869
The	-870
▁val	-871
▁bel	-872
▁must	-873
com	-874
▁prot	-875
ger	-876
▁University	-877
▁data	-878
▁called	-879
▁power	-880
▁did	-881
▁char	-882
▁organ	-883
▁land	-884
vironment	-885
up	-886
▁large	-887
aj	-888
outh	-889
▁human	-890
▁American	-891
cl	-892
▁day	-893
▁vis	-894
▁ser	-895
the	-896
▁Res	-897
▁while	-898
ains	-899
ency	-900
▁conf	-901
▁using	-902
ality	-903
ron	-904
▁elect	-905
▁plan	-906
▁main	-907
uss	-908
rent	-909
ave	-910
dition	-911
▁public	-912
▁De	-913
ash	-914
ouse	-915
day	-916
▁contin	-917
▁ret	-918
▁take	-919
akes	-920
▁design	-921
▁down	-922
ton	-923
▁point	-924
▁sol	-925
▁activ	-926
▁class	-927
▁hand	-928
▁support	-929
▁including	-930
ull	-931
▁great	-932
▁common	-933
▁Ph	-934
itions	-935
▁You	-936
▁At	-937
ared	-938
▁These	-939
stand	-940
▁redu	-941
self	-942
iqu	-943
osed	-944
eral	-945
ring	-946
man	-947
▁care	-948
▁fun	-949
ital	-950
▁around	-951
▁cor	-952
▁example	-953
way	-954
▁body	-955
▁Con	-956
▁though	-957
▁consid	-958
▁When	-959
bers	-960
▁const	-961
raph	-962
orth	-963
▁cle	-964
▁known	-965
soci	-966
▁op	-967
illion	-968
▁To	-969
reen	-970
aterial	-971
ional	-972
iod	-973
acter	-974
oun	-975
▁[	-976
...	-977
▁equ	-978
▁cour	-979
rain	-980
▁look	-981
▁Ad	-982
▁met	-983
ross	-984
▁aff	-985
▁stand	-986
ources	-987
ted	-988
ians	-989
▁percent	-990
▁still	-991
▁United	-992
ug	-993
▁What	-994
▁adv	-995
▁direct	-996
agn	-997
ries	-998
▁mat	-999
oms	-1000
eg	-1001
ired	-1002
els	-1003
▁allow	-1004
▁few	-1005
▁blood	-1006
▁Eng	-1007
ium	-1008
lish	-1009
▁educ	-1010
▁disease	-1011
▁som	-1012
▁says	-1013
▁present	-1014
iven	-1015
▁quest	-1016
▁writ	-1017
iving	-1018
rop	-1019
▁Sh	-1020
ids	-1021
ained	-1022
ration	-1023
▁gu	-1024
ets	-1025
▁build	-1026
▁sl	-1027
▁place	-1028
ior	-1029
▁might	-1030
ense	-1031
ination	-1032
lished	-1033
ason	-1034
▁chang	-1035
ording	-1036
▁law	-1037
▁start	-1038
▁government	-1039
▁women	-1040
ization	-1041
de	-1042
▁caus	-1043
▁Col	-1044
▁mil	-1045
▁air	-1046
▁area	-1047
▁phys	-1048
▁On	-1049
▁dem	-1050
erest	-1051
▁energy	-1052
ajor	-1053
▁light	-1054
▁scient	-1055
▁program	-1056
rist	-1057
ified	-1058
▁beh	-1059
ield	-1060
▁National	-1061
arc	-1062
ertain	-1063
▁another	-1064
ris	-1065
▁within	-1066
▁States	-1067
▁war	-1068
▁Cl	-1069
▁material	-1070
▁without	-1071
ividual	-1072
▁Ex	-1073
uro	-1074
arent	-1075
▁tem	-1076
ission	-1077
▁desc	-1078
▁imm	-1079
▁'	-1080
hor	-1081
ner	-1082
▁change	-1083
▁pass	-1084
atural	-1085
iver	-1086
▁sym	-1087
▁think	-1088
▁iss	-1089
less	-1090
▁cap	-1091
▁pur	-1092
,”	-1093
ological	-1094
▁include	-1095
▁fore	-1096
▁development	-1097
▁bre	-1098
ering	-1099
▁ide	-1100
az	-1101
ption	-1102
▁early	-1103
▁belie	-1104
▁project	-1105
▁near	-1106
▁old	-1107
gin	-1108
▁last	-1109
▁environment	-1110
▁meas	-1111
▁sever	-1112
bs	-1113
▁typ	-1114
▁prof	-1115
▁species	-1116
▁econom	-1117
eng	-1118
line	-1119
att	-1120
amp	-1121
▁ant	-1122
atic	-1123
ource	-1124
sp	-1125
▁pract	-1126
ograph	-1127
ently	-1128
ailable	-1129
▁Cent	-1130
▁risk	-1131
ision	-1132
▁occur	-1133
▁rest	-1134
▁against	-1135
▁—	-1136
here	-1137
alk	-1138
▁ve	-1139
▁leg	-1140
▁individual	-1141
view	-1142
▁Comm	-1143
angu	-1144
▁En	-1145
▁eas	-1146
▁anim	-1147
▁group	-1148
ived	-1149
▁second	-1150
ww	-1151
▁Q	-1152
▁ident	-1153
▁understand	-1154
▁major	-1155
ccess	-1156
▁history	-1157
osp	-1158
▁Can	-1159
▁.	-1160
itive	-1161
▁control	-1162
ats	-1163
▁However	-1164
▁bas	-1165
▁vari	-1166
ret	-1167
rodu	-1168
me	-1169
▁All	-1170
▁interest	-1171
ern	-1172
ned	-1173
▁say	-1174
ik	-1175
▁don	-1176
use	-1177
▁&	-1178
▁men	-1179
▁oper	-1180
▁product	-1181
ential	-1182
ites	-1183
▁low	-1184
▁several	-1185
lement	-1186
▁unt	-1187
▁God	-1188
ina	-1189
▁es	-1190
ards	-1191
ote	-1192
ator	-1193
▁want	-1194
▁tre	-1195
▁Pl	-1196
▁family	-1197
▁pos	-1198
▁play	-1199
▁opp	-1200
▁hy	-1201
▁particular	-1202
▁orig	-1203
▁here	-1204
▁ter	-1205
▁meth	-1206
▁pot	-1207
though	-1208
▁since	-1209
▁home	-1210
▁period	-1211
▁experi	-1212
▁par	-1213
▁eng	-1214
▁among	-1215
idence	-1216
olution	-1217
cing	-1218
▁Or	-1219
▁Le	-1220
▁become	-1221
▁current	-1222
▁mark	-1223
▁ben	-1224
lu	-1225
▁move	-1226
▁areas	-1227
▁available	-1228
ittle	-1229
▁Sci	-1230
▁cult	-1231
▁impro	-1232
▁four	-1233
ify	-1234
sy	-1235
▁Z	-1236
▁cause	-1237
ability	-1238
▁social	-1239
▁Med	-1240
par	-1241
▁pain	-1242
▁prop	-1243
▁mus	-1244
ining	-1245
ank	-1246
▁Be	-1247
icle	-1248
tt	-1249
stit	-1250
ames	-1251
▁proper	-1252
ients	-1253
abor	-1254
▁pri	-1255
▁too	-1256
ides	-1257
min	-1258
ended	-1259
▁possible	-1260
▁real	-1261
ably	-1262
▁mar	-1263
▁provide	-1264
▁order	-1265
▁invol	-1266
▁non	-1267
▁addition	-1268
▁el	-1269
▁hig	-1270
▁treatment	-1271
▁Christ	-1272
ole	-1273
▁name	-1274
ox	-1275
ories	-1276
une	-1277
ohn	-1278
▁view	-1279
▁lim	-1280
▁head	-1281
▁anal	-1282
▁object	-1283
▁bir	-1284
▁cancer	-1285
ences	-1286
ples	-1287
▁open	-1288
ways	-1289
urope	-1290
▁rece	-1291
ention	-1292
▁country	-1293
▁Te	-1294
▁rad	-1295
irc	-1296
gen	-1297
▁dev	-1298
▁Af	-1299
▁following	-1300
▁Ear	-1301
▁et	-1302
▁better	-1303
▁Some	-1304
oid	-1305
ggest	-1306
▁perform	-1307
▁month	-1308
ental	-1309
▁best	-1310
ilar	-1311
▁means	-1312
▁local	-1313
ek	-1314
▁later	-1315
iness	-1316
▁cost	-1317
▁bi	-1318
▁bro	-1319
▁che	-1320
▁--	-1321
▁cond	-1322
▁cells	-1323
▁One	-1324
▁given	-1325
▁fre	-1326
▁method	-1327
cially	-1328
▁indu	-1329
▁times	-1330
ither	-1331
▁Europe	-1332
▁age	-1333
▁Wor	-1334
▁far	-1335
▁cal	-1336
▁tri	-1337
ends	-1338
▁heart	-1339
▁certain	-1340
▁suggest	-1341
▁vol	-1342
▁problems	-1343
ged	-1344
ope	-1345
▁langu	-1346
pr	-1347
▁John	-1348
▁prevent	-1349
▁natural	-1350
▁top	-1351
▁fin	-1352
▁others	-1353
▁obs	-1354
ogn	-1355
oint	-1356
▁until	-1357
▁del	-1358
resent	-1359
rid	-1360
▁mean	-1361
▁list	-1362
▁run	-1363
▁keep	-1364
▁million	-1365
ware	-1366
face	-1367
ling	-1368
▁press	-1369
▁signific	-1370
iter	-1371
▁little	-1372
ternational	-1373
aken	-1374
rap	-1375
▁appear	-1376
▁$	-1377
▁case	-1378
▁fac	-1379
▁based	-1380
urther	-1381
▁author	-1382
atory	-1383
aps	-1384
por	-1385
▁By	-1386
ills	-1387
▁saf	-1388
oks	-1389
▁book	-1390
▁seem	-1391
▁things	-1392
▁problem	-1393
oph	-1394
not	-1395
▁record	-1396
ised	-1397
▁young	-1398
▁come	-1399
▁polit	-1400
to	-1401
▁associ	-1402
▁able	-1403
▁death	-1404
▁comput	-1405
▁success	-1406
rug	-1407
▁free	-1408
▁sw	-1409
▁levels	-1410
▁put	-1411
▁century	-1412
ones	-1413
▁lo	-1414
▁usually	-1415
▁researc	-1416
▁US	-1417
▁determ	-1418
ploy	-1419
▁happ	-1420
lection	-1421
▁post	-1422
orts	-1423
▁Gen	-1424
ured	-1425
▁plant	-1426
▁Ab	-1427
ots	-1428
▁Health	-1429
▁population	-1430
▁type	-1431
▁struct	-1432
ately	-1433
ances	-1434
▁Sc	-1435
▁turn	-1436
▁vir	-1437
▁exist	-1438
▁however	-1439
▁days	-1440
▁War	-1441
be	-1442
▁short	-1443
etic	-1444
▁Afric	-1445
▁space	-1446
▁Brit	-1447
▁amount	-1448
▁benef	-1449
▁access	-1450
▁likely	-1451
▁hard	-1452
▁bus	-1453
▁With	-1454
elf	-1455
▁doct	-1456
aper	-1457
vious	-1458
▁along	-1459
sc	-1460
▁past	-1461
▁ill	-1462
icult	-1463
▁Sy	-1464
▁estab	-1465
▁prom	-1466
▁let	-1467
▁sing	-1468
▁fil	-1469
ression	-1470
erc	-1471
▁flow	-1472
omm	-1473
ead	-1474
▁dra	-1475
▁Bl	-1476
ember	-1477
▁comb	-1478
ray	-1479
▁describ	-1480
▁May	-1481
▁results	-1482
▁least	-1483
▁World	-1484
▁above	-1485
▁Ge	-1486
ler	-1487
▁rele	-1488
".	-1489
ects	-1490
ciety	-1491
ley	-1492
ane	-1493
▁special	-1494
isc	-1495
▁systems	-1496
▁That	-1497
alf	-1498
aim	-1499
▁community	-1500
idd	-1501
ape	-1502
▁similar	-1503
over	-1504
▁significant	-1505
ators	-1506
ribut	-1507
▁circ	-1508
aster	-1509
▁indust	-1510
ored	-1511
app	-1512
▁mult	-1513
ument	-1514
▁site	-1515
▁er	-1516
mber	-1517
▁Germ	-1518
▁Mar	-1519
▁Car	-1520
▁left	-1521
af	-1522
erence	-1523
▁clear	-1524
▁Resear	-1525
pecially	-1526
▁gre	-1527
most	-1528
ode	-1529
▁mov	-1530
nal	-1531
▁Cal	-1532
str	-1533
ued	-1534
ott	-1535
ending	-1536
▁never	-1537
▁became	-1538
▁conditions	-1539
▁countries	-1540
▁general	-1541
of	-1542
▁medic	-1543
▁character	-1544
▁education	-1545
oman	-1546
work	-1547
▁begin	-1548
obal	-1549
uture	-1550
▁function	-1551
cle	-1552
urch	-1553
edi	-1554
▁next	-1555
▁profess	-1556
▁course	-1557
▁increase	-1558
ocus	-1559
ledge	-1560
▁Dr	-1561
eb	-1562
aining	-1563
ething	-1564
▁crit	-1565
▁parent	-1566
ptoms	-1567
▁enc	-1568
▁offic	-1569
▁discuss	-1570
▁dri	-1571
▁studies	-1572
▁changes	-1573
ormal	-1574
▁invest	-1575
▁necess	-1576
ruction	-1577
--	-1578
▁temper	-1579
▁North	-1580
right	-1581
▁behav	-1582
ours	-1583
▁ask	-1584
▁‘	-1585
ales	-1586
▁side	-1587
▁feel	-1588
▁brain	-1589
▁plac	-1590
▁creat	-1591
ortun	-1592
▁today	-1593
▁chem	-1594
▁America	-1595
▁difficult	-1596
enn	-1597
eter	-1598
▁gr	-1599
duct	-1600
▁Dep	-1601
▁higher	-1602
▁dr	-1603
▁York	-1604
ae	-1605
▁making	-1606
put	-1607
ges	-1608
▁Jew	-1609
▁prim	-1610
▁conn	-1611
▁cases	-1612
▁national	-1613
▁Go	-1614
artment	-1615
▁effects	-1616
asing	-1617
▁researchers	-1618
▁represent	-1619
▁teac	-1620
▁science	-1621
▁language	-1622
ively	-1623
▁whether	-1624
▁term	-1625
ilities	-1626
sw	-1627
▁away	-1628
AS	-1629
▁patients	-1630
▁toget	-1631
▁together	-1632
▁strong	-1633
▁give	-1634
▁specific	-1635
val	-1636
▁learn	-1637
▁subject	-1638
▁kind	-1639
▁South	-1640
let	-1641
▁Rep	-1642
itor	-1643
ober	-1644
ially	-1645
selves	-1646
▁dam	-1647
▁indic	-1648
▁Am	-1649
▁Im	-1650
▁tru	-1651
▁always	-1652
ung	-1653
ibr	-1654
▁ey	-1655
▁After	-1656
▁due	-1657
ilt	-1658
▁city	-1659
agement	-1660
▁something	-1661
.)	-1662
▁enough	-1663
aves	-1664
▁especially	-1665
▁concer	-1666
rams	-1667
▁applic	-1668
▁cr	-1669
▁full	-1670
ffic	-1671
ublic	-1672
atch	-1673
▁Stud	-1674
▁influ	-1675
▁polic	-1676
▁respons	-1677
▁groups	-1678
amm	-1679
▁complete	-1680
▁fund	-1681
▁drug	-1682
▁words	-1683
ird	-1684
ivil	-1685
unt	-1686
▁consum	-1687
▁ground	-1688
▁cho	-1689
ipp	-1690
▁State	-1691
apt	-1692
▁Earth	-1693
▁impact	-1694
iam	-1695
by	-1696
▁sum	-1697
iting	-1698
oot	-1699
▁Hist	-1700
port	-1701
istic	-1702
acc	-1703
▁focus	-1704
omes	-1705
▁having	-1706
▁wind	-1707
org	-1708
▁pred	-1709
▁future	-1710
▁Man	-1711
ands	-1712
▁works	-1713
▁ann	-1714
plic	-1715
▁line	-1716
▁various	-1717
overed	-1718
▁require	-1719
ches	-1720
▁relig	-1721
▁upon	-1722
▁developed	-1723
verage	-1724
▁technology	-1725
ique	-1726
▁surface	-1727
▁according	-1728
ream	-1729
▁either	-1730
▁team	-1731
▁further	-1732
ush	-1733
ready	-1734
▁z	-1735
▁phot	-1736
▁across	-1737
▁try	-1738
▁reason	-1739
▁prob	-1740
▁symptoms	-1741
▁mot	-1742
etimes	-1743
wh	-1744
▁ur	-1745
▁lower	-1746
▁English	-1747
▁seen	-1748
▁evidence	-1749
▁taken	-1750
▁close	-1751
▁medical	-1752
▁flu	-1753
ison	-1754
inci	-1755
▁house	-1756
side	-1757
▁plants	-1758
itu	-1759
▁return	-1760
▁five	-1761
augh	-1762
▁members	-1763
sych	-1764
▁question	-1765
▁learning	-1766
NA	-1767
▁ele	-1768
ateg	-1769
osis	-1770
▁text	-1771
ann	-1772
▁fall	-1773
ER	-1774
oney	-1775
▁account	-1776
▁She	-1777
rict	-1778
▁X	-1779
▁rather	-1780
lo	-1781
▁came	-1782
atures	-1783
▁field	-1784
▁observ	-1785
▁published	-1786
▁stat	-1787
▁His	-1788
ification	-1789
▁Ne	-1790
▁consider	-1791
ires	-1792
▁why	-1793
//	-1794
▁working	-1795
▁done	-1796
thing	-1797
▁Ag	-1798
reg	-1799
▁While	-1800
for	-1801
▁Cont	-1802
yl	-1803
aut	-1804
▁already	-1805
ules	-1806
▁resources	-1807
▁mass	-1808
▁Aust	-1809
▁deg	-1810
▁physical	-1811
aching	-1812
▁oil	-1813
bon	-1814
ysis	-1815
▁single	-1816
▁No	-1817
ournal	-1818
▁needs	-1819
▁going	-1820
▁Act	-1821
itary	-1822
ery	-1823
rel	-1824
▁source	-1825
▁key	-1826
▁production	-1827
▁states	-1828
▁dest	-1829
▁meet	-1830
▁activity	-1831
▁sens	-1832
iol	-1833
▁arg	-1834
▁histor	-1835
▁fail	-1836
▁event	-1837
▁collect	-1838
eds	-1839
▁particip	-1840
ibility	-1841
ule	-1842
▁net	-1843
▁Gu	-1844
▁tool	-1845
▁create	-1846
▁climate	-1847
▁range	-1848
▁political	-1849
son	-1850
opy	-1851
▁live	-1852
▁red	-1853
▁doc	-1854
▁experience	-1855
://	-1856
▁tot	-1857
▁relations	-1858
ttp	-1859
ym	-1860
▁ri	-1861
▁Co	-1862
▁recogn	-1863
▁tradition	-1864
▁toward	-1865
chie	-1866
▁value	-1867
▁ways	-1868
▁Instit	-1869
▁types	-1870
▁Research	-1871
▁rate	-1872
olic	-1873
▁improve	-1874
ried	-1875
uel	-1876
▁article	-1877
roll	-1878
▁dom	-1879
▁whole	-1880
▁rights	-1881
▁once	-1882
gest	-1883
iet	-1884
▁ess	-1885
▁growth	-1886
▁white	-1887
iation	-1888
▁Do	-1889
▁began	-1890
▁Many	-1891
illed	-1892
▁abs	-1893
▁knowledge	-1894
▁init	-1895
▁Pr	-1896
▁role	-1897
oura	-1898
▁cannot	-1899
▁big	-1900
yn	-1901
▁really	-1902
oon	-1903
▁word	-1904
▁address	-1905
▁activities	-1906
▁animals	-1907
▁port	-1908
▁itself	-1909
▁sun	-1910
▁half	-1911
▁living	-1912
▁economic	-1913
▁themselves	-1914
▁created	-1915
hib	-1916
▁thought	-1917
ederal	-1918
▁frequ	-1919
▁gas	-1920
sh	-1921
▁increased	-1922
▁fish	-1923
estern	-1924
▁detail	-1925
▁sent	-1926
reme	-1927
like	-1928
▁makes	-1929
__	-1930
ened	-1931
▁Pe	-1932
▁below	-1933
▁Center	-1934
▁size	-1935
▁scientists	-1936
ask	-1937
▁employ	-1938
▁hold	-1939
▁black	-1940
):	-1941
▁mic	-1942
▁protect	-1943
▁yet	-1944
pos	-1945
itud	-1946
▁Tr	-1947
▁tell	-1948
▁model	-1949
my	-1950
▁vers	-1951
▁Pres	-1952
ront	-1953
inc	-1954
▁Other	-1955
▁almost	-1956
aring	-1957
▁loss	-1958
▁needed	-1959
▁Most	-1960
▁adult	-1961
▁cut	-1962
▁nature	-1963
▁considered	-1964
▁took	-1965
ables	-1966
fer	-1967
▁pressure	-1968
▁recomm	-1969
▁self	-1970
lands	-1971
▁story	-1972
ington	-1973
▁More	-1974
▁wide	-1975
eding	-1976
▁business	-1977
▁claim	-1978
▁ge	-1979
▁building	-1980
▁famil	-1981
▁II	-1982
acks	-1983
vere	-1984
amin	-1985
▁entire	-1986
▁opt	-1987
▁step	-1988
epend	-1989
▁products	-1990
▁week	-1991
▁wr	-1992
▁related	-1993
ulations	-1994
▁associated	-1995
▁months	-1996
oll	-1997
apan	-1998
▁Fl	-1999
minist	-2000
▁super	-2001
▁potential	-2002
▁Acc	-2003
acy	-2004
itted	-2005
▁priv	-2006
▁region	-2007
mb	-2008
▁arch	-2009
rad	-2010
▁Science	-2011
▁School	-2012
▁questions	-2013
▁reduce	-2014
sequ	-2015
▁introdu	-2016
▁answ	-2017
▁provided	-2018
fact	-2019
▁provides	-2020
ney	-2021
mon	-2022
alt	-2023
ai	-2024
▁engine	-2025
▁fri	-2026
▁paper	-2027
▁six	-2028
▁Although	-2029
▁sure	-2030
▁ver	-2031
rect	-2032
ume	-2033
▁British	-2034
▁bar	-2035
go	-2036
▁computer	-2037
empt	-2038
ights	-2039
▁modern	-2040
▁parts	-2041
ene	-2042
▁mor	-2043
ster	-2044
▁achie	-2045
▁cy	-2046
iddle	-2047
abit	-2048
▁global	-2049
ES	-2050
▁skin	-2051
▁concept	-2052
▁doctor	-2053
▁Will	-2054
ese	-2055
ips	-2056
▁lay	-2057
▁princi	-2058
erve	-2059
▁quality	-2060
hing	-2061
▁la	-2062
▁situ	-2063
▁actually	-2064
▁required	-2065
▁measure	-2066
bo	-2067
ores	-2068
▁recent	-2069
▁separ	-2070
▁Sec	-2071
pid	-2072
▁conduct	-2073
▁lab	-2074
▁Jan	-2075
ript	-2076
▁programs	-2077
▁mind	-2078
▁neg	-2079
▁Japan	-2080
▁services	-2081
oles	-2082
▁materials	-2083
ops	-2084
▁produce	-2085
▁Department	-2086
▁Su	-2087
vey	-2088
▁Canad	-2089
ounds	-2090
▁link	-2091
attle	-2092
urs	-2093
▁ever	-2094
▁sam	-2095
▁emer	-2096
irm	-2097
icles	-2098
▁Har	-2099
aged	-2100
ma	-2101
aries	-2102
▁Inf	-2103
▁page	-2104
ricult	-2105
▁Des	-2106
ensive	-2107
AR	-2108
▁pay	-2109
▁nut	-2110
▁issues	-2111
▁communic	-2112
▁Ed	-2113
rie	-2114
▁condition	-2115
aff	-2116
▁parents	-2117
▁soil	-2118
inter	-2119
ivity	-2120
ections	-2121
lying	-2122
urity	-2123
rought	-2124
▁earth	-2125
pro	-2126
ee	-2127
▁idea	-2128
rown	-2129
▁chall	-2130
ervation	-2131
iction	-2132
▁deb	-2133
▁green	-2134
▁dig	-2135
▁coll	-2136
▁Calif	-2137
atter	-2138
▁farm	-2139
AT	-2140
▁total	-2141
▁diagn	-2142
▁Em	-2143
rated	-2144
▁complex	-2145
chan	-2146
▁fat	-2147
utes	-2148
▁http	-2149
▁King	-2150
▁schools	-2151
▁maint	-2152
▁chemical	-2153
inary	-2154
ister	-2155
▁Count	-2156
▁bur	-2157
ows	-2158
▁environmental	-2159
▁camp	-2160
▁Pre	-2161
▁weight	-2162
ched	-2163
▁reported	-2164
▁simple	-2165
▁necessary	-2166
lege	-2167
▁liter	-2168
ply	-2169
▁Min	-2170
▁travel	-2171
▁heav	-2172
▁effective	-2173
▁=	-2174
ival	-2175
ging	-2176
▁fire	-2177
▁rev	-2178
iment	-2179
▁service	-2180
▁regard	-2181
▁hours	-2182
▁previous	-2183
▁shows	-2184
lt	-2185
▁Per	-2186
▁sex	-2187
▁Ju	-2188
▁caused	-2189
▁Aug	-2190
▁quick	-2191
▁surv	-2192
▁sat	-2193
▁student	-2194
▁react	-2195
▁Par	-2196
▁forest	-2197
▁lot	-2198
cient	-2199
ucle	-2200
▁Part	-2201
▁Me	-2202
▁sett	-2203
nces	-2204
▁From	-2205
uck	-2206
cil	-2207
▁exerc	-2208
▁built	-2209
onse	-2210
▁sense	-2211
▁matter	-2212
ump	-2213
▁disord	-2214
utions	-2215
ternal	-2216
▁prote	-2217
▁ago	-2218
▁Qu	-2219
▁wild	-2220
▁longer	-2221
▁standard	-2222
▁contact	-2223
▁accept	-2224
Th	-2225
▁market	-2226
▁taking	-2227
▁Institute	-2228
▁average	-2229
ief	-2230
amed	-2231
▁sometimes	-2232
▁suff	-2233
▁led	-2234
▁Fran	-2235
▁repl	-2236
arily	-2237
▁relative	-2238
▁money	-2239
▁origin	-2240
umb	-2241
▁factors	-2242
▁Wash	-2243
▁true	-2244
▁greater	-2245
▁ability	-2246
▁action	-2247
usion	-2248
▁throughout	-2249
▁Cons	-2250
▁Bo	-2251
pect	-2252
▁behavior	-2253
▁conc	-2254
igure	-2255
ID	-2256
uary	-2257
▁pattern	-2258
ening	-2259
▁increasing	-2260
▁position	-2261
▁Californ	-2262
ns	-2263
▁late	-2264
abet	-2265
cies	-2266
based	-2267
▁Apr	-2268
▁understanding	-2269
ze	-2270
izing	-2271
duc	-2272
▁opportun	-2273
erous	-2274
▁tar	-2275
▁Rec	-2276
▁terms	-2277
▁generally	-2278
▁tax	-2279
dom	-2280
▁feet	-2281
hood	-2282
imately	-2283
rench	-2284
atives	-2285
▁Austral	-2286
▁image	-2287
▁normal	-2288
▁spread	-2289
▁practice	-2290
▁original	-2291
▁issue	-2292
rapy	-2293
▁shown	-2294
▁ens	-2295
itation	-2296
▁includes	-2297
adem	-2298
▁subst	-2299
▁App	-2300
▁path	-2301
▁designed	-2302
▁management	-2303
ength	-2304
hold	-2305
▁California	-2306
▁assess	-2307
ban	-2308
▁theory	-2309
IV	-2310
▁relationship	-2311
aging	-2312
bor	-2313
▁scientific	-2314
▁March	-2315
asc	-2316
▁probably	-2317
▁structure	-2318
▁force	-2319
lex	-2320
▁approach	-2321
▁threat	-2322
▁attempt	-2323
thern	-2324
rate	-2325
ached	-2326
▁review	-2327
▁popular	-2328
▁Press	-2329
anced	-2330
▁sou	-2331
▁job	-2332
▁Ret	-2333
▁produced	-2334
het	-2335
▁effic	-2336
▁avoid	-2337
▁analysis	-2338
raft	-2339
▁Gl	-2340
istance	-2341
▁,	-2342
▁believe	-2343
eration	-2344
▁Oct	-2345
▁nation	-2346
ronic	-2347
▁inj	-2348
▁June	-2349
▁color	-2350
▁forms	-2351
▁El	-2352
▁causes	-2353
▁sea	-2354
▁town	-2355
fully	-2356
▁Dav	-2357
▁written	-2358
▁fem	-2359
▁...	-2360
▁Child	-2361
▁sources	-2362
leep	-2363
ades	-2364
▁According	-2365
▁West	-2366
▁involved	-2367
▁talk	-2368
▁soft	-2369
vention	-2370
▁thing	-2371
inks	-2372
▁carbon	-2373
▁uses	-2374
▁bab	-2375
▁military	-2376
▁Comp	-2377
new	-2378
rial	-2379
know	-2380
▁Washington	-2381
▁particularly	-2382
ising	-2383
▁included	-2384
▁pict	-2385
▁reading	-2386
istics	-2387
▁comes	-2388
▁poll	-2389
▁visit	-2390
▁events	-2391
▁slow	-2392
▁cat	-2393
▁magn	-2394
▁viol	-2395
▁diet	-2396
▁Int	-2397
▁series	-2398
pri	-2399
▁developing	-2400
▁squ	-2401
▁dou	-2402
▁displ	-2403
▁official	-2404
▁heat	-2405
▁numbers	-2406
ibrary	-2407
▁temperature	-2408
▁poor	-2409
▁online	-2410
▁contain	-2411
▁shall	-2412
lease	-2413
▁individuals	-2414
cean	-2415
▁international	-2416
▁Tw	-2417
▁stop	-2418
▁estim	-2419
▁personal	-2420
▁civil	-2421
alu	-2422
▁Serv	-2423
▁earl	-2424
www	-2425
▁Educ	-2426
▁society	-2427
ography	-2428
▁held	-2429
ius	-2430
issions	-2431
▁log	-2432
▁remov	-2433
▁serious	-2434
▁content	-2435
useum	-2436
▁ut	-2437
aving	-2438
▁demon	-2439
▁Us	-2440
▁ce	-2441
▁See	-2442
amb	-2443
▁industry	-2444
uth	-2445
▁coun	-2446
▁Sept	-2447
▁History	-2448
▁established	-2449
rew	-2450
▁Ac	-2451
▁psych	-2452
▁thous	-2453
▁whose	-2454
▁simply	-2455
▁bring	-2456
▁policy	-2457
▁movement	-2458
▁break	-2459
yle	-2460
▁Sm	-2461
▁labor	-2462
▁During	-2463
▁Not	-2464
ille	-2465
▁attack	-2466
▁April	-2467
▁interact	-2468
▁mechan	-2469
▁Bec	-2470
haps	-2471
▁mother	-2472
hern	-2473
ON	-2474
▁deep	-2475
ressed	-2476
ony	-2477
▁outside	-2478
▁China	-2479
We	-2480
▁Of	-2481
▁healthy	-2482
▁International	-2483
▁refer	-2484
hel	-2485
▁Your	-2486
▁variety	-2487
▁birth	-2488
ctions	-2489
▁Cong	-2490
irit	-2491
▁August	-2492
▁div	-2493
▁thus	-2494
▁Indian	-2495
▁Inc	-2496
isions	-2497
verse	-2498
IS	-2499
▁Prog	-2500
▁warm	-2501
▁exc	-2502
undred	-2503
▁Char	-2504
▁music	-2505
▁response	-2506
▁lives	-2507
oly	-2508
▁fa	-2509
▁although	-2510
▁ste	-2511
▁animal	-2512
ift	-2513
▁European	-2514
▁President	-2515
▁emb	-2516
▁br	-2517
IN	-2518
▁July	-2519
▁meaning	-2520
▁check	-2521
ided	-2522
▁Ant	-2523
▁Bar	-2524
▁Associ	-2525
▁face	-2526
▁i	-2527
ners	-2528
▁instit	-2529
▁Her	-2530
OR	-2531
▁skills	-2532
reng	-2533
▁training	-2534
rand	-2535
ulate	-2536
▁ir	-2537
▁River	-2538
▁tend	-2539
▁French	-2540
▁encoura	-2541
aches	-2542
aily	-2543
ilos	-2544
ads	-2545
▁Tra	-2546
▁sold	-2547
▁Feb	-2548
▁vacc	-2549
erson	-2550
▁clean	-2551
▁bacter	-2552
▁virus	-2553
ulated	-2554
",	-2555
▁eat	-2556
wise	-2557
ror	-2558
▁compet	-2559
▁select	-2560
▁damage	-2561
ancy	-2562
▁target	-2563
▁webs	-2564
▁x	-2565
▁/	-2566
orthern	-2567
▁document	-2568
▁independ	-2569
▁investig	-2570
▁stri	-2571
▁basic	-2572
overy	-2573
▁German	-2574
▁affect	-2575
▁fru	-2576
▁consist	-2577
gar	-2578
itude	-2579
▁electric	-2580
▁night	-2581
ufact	-2582
ribution	-2583
▁company	-2584
▁decl	-2585
▁Now	-2586
▁extreme	-2587
rast	-2588
▁regular	-2589
▁Mc	-2590
▁implement	-2591
rs	-2592
▁respect	-2593
▁Here	-2594
▁integ	-2595
▁Ke	-2596
abetes	-2597
▁cit	-2598
▁mess	-2599
▁First	-2600
▁vide	-2601
▁William	-2602
rance	-2603
▁Church	-2604
▁third	-2605
light	-2606
▁wood	-2607
ino	-2608
▁Since	-2609
▁miles	-2610
▁continue	-2611
uge	-2612
see	-2613
▁larger	-2614
▁appl	-2615
▁defin	-2616
▁severe	-2617
▁north	-2618
▁culture	-2619
▁Reg	-2620
▁search	-2621
▁books	-2622
▁My	-2623
▁went	-2624
▁lack	-2625
▁added	-2626
oor	-2627
▁instead	-2628
rim	-2629
▁capt	-2630
▁Mon	-2631
▁cross	-2632
▁methods	-2633
▁Art	-2634
▁Africa	-2635
▁mach	-2636
▁except	-2637
▁mount	-2638
▁Christian	-2639
▁determine	-2640
▁eth	-2641
▁broad	-2642
▁safe	-2643
ground	-2644
iers	-2645
▁attention	-2646
▁nearly	-2647
▁appropri	-2648
▁expos	-2649
▁IS	-2650
pose	-2651
ension	-2652
AN	-2653
edia	-2654
▁African	-2655
den	-2656
▁draw	-2657
▁additional	-2658
ternet	-2659
▁kids	-2660
▁immedi	-2661
▁etc	-2662
▁ord	-2663
mit	-2664
▁*	-2665
▁sites	-2666
where	-2667
▁therefore	-2668
▁doing	-2669
▁growing	-2670
▁nucle	-2671
▁tests	-2672
▁cover	-2673
▁hundred	-2674
▁Cor	-2675
▁fav	-2676
ls	-2677
▁compon	-2678
elling	-2679
part	-2680
olec	-2681
▁print	-2682
▁evalu	-2683
gn	-2684
ises	-2685
aul	-2686
▁received	-2687
▁proced	-2688
▁Govern	-2689
▁January	-2690
term	-2691
▁soon	-2692
elt	-2693
▁teachers	-2694
▁coast	-2695
▁concent	-2696
▁religious	-2697
ana	-2698
▁families	-2699
▁central	-2700
▁share	-2701
ellow	-2702
▁wall	-2703
▁quite	-2704
▁Americans	-2705
▁section	-2706
▁seems	-2707
▁sil	-2708
▁streng	-2709
▁south	-2710
▁veget	-2711
IC	-2712
▁sust	-2713
▁tur	-2714
▁tiss	-2715
▁primary	-2716
▁infection	-2717
aly	-2718
erg	-2719
astic	-2720
ama	-2721
▁dog	-2722
▁India	-2723
▁September	-2724
reek	-2725
rote	-2726
▁multip	-2727
▁news	-2728
lim	-2729
▁Mus	-2730
▁easy	-2731
eks	-2732
▁ox	-2733
▁beginning	-2734
▁takes	-2735
▁compan	-2736
It	-2737
▁reve	-2738
▁foods	-2739
▁private	-2740
▁sound	-2741
▁front	-2742
▁points	-2743
▁identify	-2744
year	-2745
aling	-2746
▁federal	-2747
▁safety	-2748
);	-2749
imum	-2750
cember	-2751
uk	-2752
▁•	-2753
▁Web	-2754
▁sal	-2755
▁himself	-2756
che	-2757
enced	-2758
uman	-2759
▁benefits	-2760
ems	-2761
hy	-2762
▁writing	-2763
ription	-2764
▁active	-2765
set	-2766
▁hor	-2767
▁correct	-2768
▁Sw	-2769
▁administ	-2770
▁directly	-2771
▁reflect	-2772
▁images	-2773
▁leaders	-2774
▁solar	-2775
inct	-2776
na	-2777
▁largest	-2778
▁altern	-2779
▁Pol	-2780
▁brought	-2781
▁habit	-2782
▁love	-2783
▁command	-2784
▁obt	-2785
▁Russ	-2786
ha	-2787
▁described	-2788
estic	-2789
▁network	-2790
▁Because	-2791
▁communities	-2792
ovember	-2793
▁rare	-2794
▁October	-2795
eed	-2796
▁prep	-2797
▁County	-2798
▁stress	-2799
rieved	-2800
cell	-2801
ridge	-2802
▁England	-2803
▁manufact	-2804
▁hyd	-2805
▁Even	-2806
uments	-2807
PA	-2808
room	-2809
▁sleep	-2810
lation	-2811
▁traditional	-2812
▁doesn	-2813
exic	-2814
▁bott	-2815
▁Sch	-2816
ields	-2817
▁died	-2818
▁host	-2819
itis	-2820
mosp	-2821
▁humans	-2822
rab	-2823
ulf	-2824
▁rates	-2825
▁Sur	-2826
▁Vir	-2827
▁San	-2828
rael	-2829
omet	-2830
▁demonstr	-2831
▁dang	-2832
▁getting	-2833
▁positive	-2834
▁lost	-2835
▁ideas	-2836
▁har	-2837
oke	-2838
▁City	-2839
▁Medic	-2840
inical	-2841
▁prior	-2842
▁decre	-2843
▁length	-2844
pper	-2845
isms	-2846
▁file	-2847
▁rout	-2848
▁base	-2849
▁efforts	-2850
▁born	-2851
ming	-2852
▁trees	-2853
▁evolution	-2854
ceed	-2855
ying	-2856
▁patient	-2857
uries	-2858
▁bal	-2859
▁progress	-2860
▁ice	-2861
▁else	-2862
▁compared	-2863
life	-2864
▁limited	-2865
▁drink	-2866
▁micro	-2867
yond	-2868
▁tree	-2869
▁pp	-2870
▁son	-2871
▁diseases	-2872
anks	-2873
asons	-2874
▁performance	-2875
ruary	-2876
▁contains	-2877
▁General	-2878
▁harm	-2879
▁agricult	-2880
▁hot	-2881
mission	-2882
▁center	-2883
▁Jewish	-2884
▁highly	-2885
▁lif	-2886
▁Mexic	-2887
ford	-2888
▁inside	-2889
▁weeks	-2890
▁Ec	-2891
▁father	-2892
▁tools	-2893
iles	-2894
▁mill	-2895
▁laws	-2896
▁located	-2897
lin	-2898
▁Congress	-2899
▁wa	-2900
▁jud	-2901
EN	-2902
▁quickly	-2903
▁fuel	-2904
▁speak	-2905
▁Jes	-2906
aces	-2907
mar	-2908
▁der	-2909
oses	-2910
▁aware	-2911
istry	-2912
▁interp	-2913
ASA	-2914
▁former	-2915
▁December	-2916
▁pan	-2917
ospital	-2918
iency	-2919
▁commer	-2920
▁Education	-2921
▁rock	-2922
ondon	-2923
▁drugs	-2924
oes	-2925
▁useful	-2926
izations	-2927
▁started	-2928
▁establish	-2929
▁difference	-2930
ously	-2931
▁contribut	-2932
▁Park	-2933
cks	-2934
▁foot	-2935
▁carry	-2936
encies	-2937
osition	-2938
con	-2939
▁told	-2940
▁eye	-2941
▁ep	-2942
rag	-2943
▁leading	-2944
▁Dis	-2945
▁wrote	-2946
bit	-2947
▁behind	-2948
▁Society	-2949
▁ancient	-2950
▁season	-2951
ils	-2952
▁Canada	-2953
▁Journal	-2954
alled	-2955
▁Arch	-2956
lam	-2957
used	-2958
▁Great	-2959
▁ang	-2960
▁November	-2961
▁mid	-2962
▁arri	-2963
▁easily	-2964
▁answer	-2965
ocr	-2966
rig	-2967
▁adults	-2968
▁remain	-2969
▁exercise	-2970
▁workers	-2971
▁High	-2972
apter	-2973
mitted	-2974
▁agree	-2975
▁looking	-2976
urg	-2977
▁calc	-2978
▁quant	-2979
▁adop	-2980
▁forces	-2981
pite	-2982
▁property	-2983
▁Retrieved	-2984
▁capital	-2985
▁remains	-2986
▁colon	-2987
▁ult	-2988
leb	-2989
men	-2990
▁Israel	-2991
▁bit	-2992
▁transport	-2993
▁hands	-2994
▁Coun	-2995
▁appe	-2996
▁collection	-2997
▁pregn	-2998
hens	-2999
▁objects	-3000
iot	-3001
▁rapid	-3002
ham	-3003
▁Read	-3004
▁got	-3005
▁recently	-3006
▁Union	-3007
▁supply	-3008
▁jo	-3009
▁cust	-3010
▁dry	-3011
▁summer	-3012
▁daily	-3013
▁memory	-3014
▁Pat	-3015
▁feed	-3016
▁nothing	-3017
▁dark	-3018
In	-3019
oming	-3020
▁billion	-3021
ED	-3022
fficient	-3023
ference	-3024
▁prec	-3025
▁HIV	-3026
▁features	-3027
▁gradu	-3028
ties	-3029
▁places	-3030
▁pack	-3031
▁website	-3032
▁accom	-3033
aters	-3034
▁lines	-3035
▁someone	-3036
osing	-3037
▁achieve	-3038
▁values	-3039
▁Also	-3040
▁card	-3041
coh	-3042
water	-3043
▁older	-3044
▁media	-3045
iber	-3046
▁Bi	-3047
itch	-3048
▁Red	-3049
inated	-3050
itte	-3051
▁Techn	-3052
idents	-3053
▁arm	-3054
▁East	-3055
▁Association	-3056
▁followed	-3057
fect	-3058
inese	-3059
▁Sim	-3060
▁fight	-3061
▁offer	-3062
▁extra	-3063
pan	-3064
itting	-3065
▁Then	-3066
▁costs	-3067
▁February	-3068
▁walk	-3069
▁Environment	-3070
aid	-3071
▁influence	-3072
▁protection	-3073
▁exact	-3074
▁critical	-3075
▁purpose	-3076
▁standards	-3077
▁trade	-3078
▁System	-3079
▁continued	-3080
▁basis	-3081
▁vit	-3082
ura	-3083
▁genetic	-3084
▁allows	-3085
▁Vol	-3086
▁saw	-3087
▁NASA	-3088
▁Develop	-3089
▁Law	-3090
gery	-3091
▁appropriate	-3092
▁earlier	-3093
▁vict	-3094
▁dead	-3095
arr	-3096
iques	-3097
▁Prof	-3098
hest	-3099
vest	-3100
AC	-3101
▁application	-3102
▁ten	-3103
▁People	-3104
▁molec	-3105
▁und	-3106
▁unique	-3107
IT	-3108
▁breast	-3109
▁bad	-3110
▁Commun	-3111
head	-3112
▁Our	-3113
▁respond	-3114
arian	-3115
▁Cour	-3116
rition	-3117
▁adj	-3118
▁occup	-3119
▁copy	-3120
▁Trans	-3121
▁Public	-3122
▁asked	-3123
▁diabetes	-3124
▁birds	-3125
▁acid	-3126
▁Ro	-3127
▁pen	-3128
ought	-3129
▁stra	-3130
▁David	-3131
▁challeng	-3132
▁corn	-3133
▁middle	-3134
ingu	-3135
rogen	-3136
▁Cur	-3137
▁cam	-3138
oma	-3139
odies	-3140
▁eight	-3141
▁multiple	-3142
▁member	-3143
▁Ob	-3144
▁mom	-3145
ula	-3146
▁citiz	-3147
▁cred	-3148
▁finan	-3149
▁fram	-3150
▁king	-3151
▁atmosp	-3152
▁minutes	-3153
▁Jews	-3154
▁Roman	-3155
▁elements	-3156
aught	-3157
rees	-3158
▁decision	-3159
▁date	-3160
▁expected	-3161
▁receive	-3162
craft	-3163
▁den	-3164
orge	-3165
▁Day	-3166
▁spirit	-3167
▁continu	-3168
▁Phil	-3169
▁ast	-3170
▁web	-3171
▁projects	-3172
▁Green	-3173
▁London	-3174
ipment	-3175
▁Each	-3176
airs	-3177
▁demand	-3178
ilosoph	-3179
▁Just	-3180
▁Why	-3181
ev	-3182
▁weather	-3183
▁cool	-3184
▁surround	-3185
▁discovered	-3186
sect	-3187
▁named	-3188
roy	-3189
▁House	-3190
▁situation	-3191
▁sn	-3192
▁stay	-3193
▁hous	-3194
▁symb	-3195
▁instru	-3196
▁approx	-3197
▁security	-3198
▁companies	-3199
▁video	-3200
▁Over	-3201
uff	-3202
▁planet	-3203
▁appears	-3204
▁screen	-3205
unch	-3206
▁expect	-3207
ari	-3208
▁final	-3209
▁Program	-3210
▁version	-3211
wide	-3212
entially	-3213
ica	-3214
▁alone	-3215
▁fast	-3216
▁Chinese	-3217
▁beg	-3218
▁rain	-3219
▁Prot	-3220
▁predict	-3221
▁aud	-3222
omb	-3223
▁tit	-3224
ext	-3225
▁ones	-3226
▁sequ	-3227
▁capac	-3228
▁formed	-3229
▁exposure	-3230
inate	-3231
can	-3232
ully	-3233
▁requires	-3234
▁code	-3235
▁occurs	-3236
▁anti	-3237
ixed	-3238
▁table	-3239
hemat	-3240
▁teaching	-3241
ste	-3242
▁smaller	-3243
▁placed	-3244
▁exec	-3245
▁CO	-3246
▁protein	-3247
cious	-3248
▁DNA	-3249
▁Mod	-3250
▁essential	-3251
▁Fin	-3252
equ	-3253
▁Mich	-3254
▁Jesus	-3255
ologies	-3256
▁speed	-3257
ech	-3258
▁goal	-3259
▁effort	-3260
▁adapt	-3261
anish	-3262
▁sch	-3263
▁Use	-3264
aled	-3265
▁cold	-3266
▁economy	-3267
▁beyond	-3268
▁currently	-3269
▁veh	-3270
nov	-3271
▁testing	-3272
▁becomes	-3273
▁legal	-3274
▁hyp	-3275
oring	-3276
▁Another	-3277
ender	-3278
▁responsible	-3279
▁processes	-3280
▁woman	-3281
illing	-3282
▁court	-3283
▁winter	-3284
▁mission	-3285
▁ensure	-3286
▁anything	-3287
▁software	-3288
▁perhaps	-3289
oe	-3290
▁importance	-3291
atur	-3292
izes	-3293
▁Are	-3294
▁asp	-3295
▁gave	-3296
▁Lear	-3297
▁Council	-3298
▁names	-3299
▁baby	-3300
▁gard	-3301
omas	-3302
▁tele	-3303
AL	-3304
▁display	-3305
▁reach	-3306
▁gene	-3307
rest	-3308
▁Water	-3309
cohol	-3310
▁enj	-3311
king	-3312
ky	-3313
▁therapy	-3314
▁James	-3315
▁bacteria	-3316
iar	-3317
▁controll	-3318
▁allowed	-3319
atin	-3320
▁monitor	-3321
▁Mary	-3322
▁helps	-3323
▁Av	-3324
▁gives	-3325
ira	-3326
▁mention	-3327
▁aim	-3328
▁UN	-3329
off	-3330
▁hope	-3331
ider	-3332
▁:	-3333
▁sustain	-3334
nes	-3335
▁hon	-3336
▁cou	-3337
▁unc	-3338
▁Cath	-3339
▁neigh	-3340
▁acqu	-3341
▁analy	-3342
aign	-3343
This	-3344
▁room	-3345
▁church	-3346
▁waste	-3347
▁virt	-3348
▁depend	-3349
ara	-3350
▁reports	-3351
atab	-3352
▁friends	-3353
▁game	-3354
▁rise	-3355
▁block	-3356
▁cultural	-3357
▁Rober	-3358
iece	-3359
iest	-3360
▁star	-3361
imal	-3362
oted	-3363
▁Rel	-3364
▁stru	-3365
DA	-3366
▁eyes	-3367
▁degree	-3368
▁Inter	-3369
ocks	-3370
▁Tod	-3371
▁measures	-3372
▁historical	-3373
▁bul	-3374
▁Children	-3375
▁constit	-3376
come	-3377
aced	-3378
bl	-3379
udd	-3380
▁France	-3381
▁river	-3382
aint	-3383
▁Internet	-3384
ests	-3385
▁write	-3386
▁president	-3387
resh	-3388
▁egg	-3389
▁Ang	-3390
ittee	-3391
▁location	-3392
▁electr	-3393
▁equipment	-3394
sec	-3395
▁recommend	-3396
▁won	-3397
▁emot	-3398
▁pet	-3399
▁Inst	-3400
▁applications	-3401
▁Medical	-3402
▁techniques	-3403
▁foreign	-3404
▁affected	-3405
▁Val	-3406
▁construction	-3407
▁mental	-3408
▁Thus	-3409
ologist	-3410
▁findings	-3411
▁strateg	-3412
vant	-3413
▁reduced	-3414
▁radiation	-3415
bre	-3416
ribute	-3417
reet	-3418
▁susp	-3419
▁identified	-3420
time	-3421
edom	-3422
▁ball	-3423
▁eating	-3424
resp	-3425
▁rule	-3426
▁status	-3427
osa	-3428
▁guid	-3429
erved	-3430
▁typically	-3431
known	-3432
▁imag	-3433
▁Under	-3434
▁fear	-3435
irection	-3436
▁Off	-3437
▁Found	-3438
asion	-3439
▁consequ	-3440
▁Paul	-3441
book	-3442
▁illness	-3443
enty	-3444
▁Western	-3445
▁Australia	-3446
▁Museum	-3447
oud	-3448
▁organization	-3449
▁user	-3450
▁passed	-3451
▁rules	-3452
▁providing	-3453
house	-3454
▁Their	-3455
▁relatively	-3456
igr	-3457
▁Lord	-3458
▁survey	-3459
▁College	-3460
▁Mor	-3461
▁cop	-3462
▁tox	-3463
▁differences	-3464
cles	-3465
▁illust	-3466
▁conflic	-3467
olar	-3468
▁mut	-3469
▁Germany	-3470
▁cities	-3471
yp	-3472
odes	-3473
▁fair	-3474
▁successful	-3475
▁showed	-3476
fort	-3477
gypt	-3478
▁leaves	-3479
▁advant	-3480
▁benefit	-3481
▁device	-3482
▁towards	-3483
vert	-3484
▁leave	-3485
▁Tex	-3486
orms	-3487
▁majority	-3488
▁compar	-3489
▁stage	-3490
▁Let	-3491
▁peace	-3492
▁deal	-3493
iny	-3494
ament	-3495
▁Rev	-3496
enth	-3497
▁vill	-3498
▁swe	-3499
▁legis	-3500
▁negative	-3501
▁thinking	-3502
▁completely	-3503
▁solution	-3504
▁Spe	-3505
▁enjoy	-3506
ensity	-3507
▁Don	-3508
▁celeb	-3509
rief	-3510
▁assum	-3511
▁Pal	-3512
EC	-3513
▁models	-3514
▁gold	-3515
▁Bra	-3516
▁teacher	-3517
▁enter	-3518
▁trying	-3519
oration	-3520
ald	-3521
▁tissue	-3522
▁applied	-3523
semb	-3524
▁regions	-3525
▁goes	-3526
▁mis	-3527
▁changed	-3528
▁treated	-3529
▁scale	-3530
itect	-3531
▁nuclear	-3532
▁Human	-3533
lor	-3534
rome	-3535
▁records	-3536
phas	-3537
▁breat	-3538
era	-3539
▁coming	-3540
▁beaut	-3541
▁office	-3542
▁worked	-3543
▁George	-3544
▁Di	-3545
▁repe	-3546
pped	-3547
▁thousands	-3548
▁Che	-3549
ellig	-3550
ession	-3551
▁emissions	-3552
▁lat	-3553
▁sugar	-3554
▁commonly	-3555
▁suggests	-3556
antic	-3557
▁Mars	-3558
▁interesting	-3559
back	-3560
▁stream	-3561
osy	-3562
▁medicine	-3563
▁reasons	-3564
▁Black	-3565
▁Service	-3566
load	-3567
▁Scient	-3568
▁Dec	-3569
▁belief	-3570
▁tum	-3571
▁Ass	-3572
▁mag	-3573
▁News	-3574
▁seven	-3575
▁Aut	-3576
▁Egypt	-3577
more	-3578
ero	-3579
ographic	-3580
ologists	-3581
▁commercial	-3582
▁examples	-3583
▁expand	-3584
su	-3585
▁Republic	-3586
ken	-3587
▁joint	-3588
▁physic	-3589
▁purch	-3590
▁TH	-3591
▁staff	-3592
▁equal	-3593
cast	-3594
▁Once	-3595
▁map	-3596
itable	-3597
pris	-3598
▁gir	-3599
▁everything	-3600
cip	-3601
▁Miss	-3602
▁Air	-3603
▁financial	-3604
▁Government	-3605
▁devices	-3606
▁female	-3607
▁exhib	-3608
gency	-3609
BN	-3610
▁practices	-3611
▁categ	-3612
▁element	-3613
▁didn	-3614
▁Rich	-3615
▁limit	-3616
ords	-3617
▁pow	-3618
▁direction	-3619
hors	-3620
▁journal	-3621
related	-3622
▁miss	-3623
▁moved	-3624
ibly	-3625
▁sac	-3626
wards	-3627
▁Plan	-3628
▁distance	-3629
▁separate	-3630
▁Post	-3631
▁+	-3632
ogen	-3633
▁experim	-3634
▁bound	-3635
▁surgery	-3636
▁Virgin	-3637
▁insp	-3638
▁construct	-3639
▁colle	-3640
ST	-3641
▁Sub	-3642
▁creating	-3643
▁La	-3644
bed	-3645
▁ves	-3646
▁presented	-3647
▁presence	-3648
▁users	-3649
▁constant	-3650
▁Today	-3651
▁professional	-3652
▁shape	-3653
rops	-3654
▁track	-3655
▁Medicine	-3656
II	-3657
▁poly	-3658
▁antib	-3659
wor	-3660
▁road	-3661
ida	-3662
▁opportunity	-3663
▁Two	-3664
▁Dem	-3665
▁assist	-3666
▁educational	-3667
▁populations	-3668
ector	-3669
▁nor	-3670
▁powerful	-3671
▁autom	-3672
▁picture	-3673
▁Fore	-3674
▁contract	-3675
▁Mr	-3676
▁Project	-3677
▁existing	-3678
▁professor	-3679
▁destroy	-3680
▁noted	-3681
▁initi	-3682
▁mer	-3683
▁note	-3684
▁believed	-3685
ago	-3686
▁observed	-3687
▁unit	-3688
▁increases	-3689
▁approximately	-3690
▁native	-3691
▁faith	-3692
▁moving	-3693
SA	-3694
erate	-3695
▁disorder	-3696
▁price	-3697
co	-3698
▁killed	-3699
▁Ev	-3700
▁custom	-3701
▁functions	-3702
▁Court	-3703
▁estimated	-3704
▁spect	-3705
▁rich	-3706
raw	-3707
▁defined	-3708
▁>	-3709
▁Texas	-3710
▁symbol	-3711
▁carried	-3712
uls	-3713
▁About	-3714
rick	-3715
▁radio	-3716
▁strength	-3717
que	-3718
▁rat	-3719
▁Mexico	-3720
▁via	-3721
eff	-3722
▁assign	-3723
▁plans	-3724
▁doub	-3725
▁max	-3726
▁rob	-3727
▁chance	-3728
icip	-3729
▁highest	-3730
▁trad	-3731
▁Lou	-3732
enge	-3733
▁Phys	-3734
▁released	-3735
▁ocean	-3736
▁spring	-3737
▁whom	-3738
▁capacity	-3739
▁sem	-3740
▁wond	-3741
▁southern	-3742
cers	-3743
▁Sen	-3744
▁signs	-3745
▁dim	-3746
rehens	-3747
▁fully	-3748
ience	-3749
▁eventually	-3750
▁suppl	-3751
▁citizens	-3752
ht	-3753
▁slight	-3754
▁Mount	-3755
▁bra	-3756
▁bran	-3757
▁truth	-3758
▁factor	-3759
edic	-3760
▁instance	-3761
iant	-3762
eles	-3763
▁Space	-3764
ams	-3765
▁bone	-3766
▁Social	-3767
rupt	-3768
iverse	-3769
▁maintain	-3770
▁Development	-3771
▁divid	-3772
▁Japanese	-3773
▁immediately	-3774
▁Information	-3775
▁Mat	-3776
lick	-3777
▁organizations	-3778
abilities	-3779
▁lung	-3780
▁campaign	-3781
▁enh	-3782
▁overall	-3783
▁communication	-3784
▁fruit	-3785
▁immune	-3786
iable	-3787
▁alcohol	-3788
▁Net	-3789
▁Mart	-3790
▁tou	-3791
▁minor	-3792
▁incor	-3793
ocol	-3794
▁moment	-3795
▁decades	-3796
▁clinical	-3797
win	-3798
▁male	-3799
____	-3800
▁northern	-3801
St	-3802
▁weak	-3803
▁fields	-3804
▁stories	-3805
▁cru	-3806
▁Greek	-3807
▁hair	-3808
▁Sun	-3809
ET	-3810
▁reference	-3811
itz	-3812
▁vessel	-3813
▁figure	-3814
mark	-3815
▁Mic	-3816
▁distribution	-3817
▁conservation	-3818
acific	-3819
▁Spanish	-3820
▁income	-3821
▁tub	-3822
▁box	-3823
▁Food	-3824
▁mouth	-3825
▁conducted	-3826
apers	-3827
▁ISBN	-3828
▁party	-3829
▁feature	-3830
iring	-3831
orial	-3832
▁genes	-3833
▁alt	-3834
▁properties	-3835
▁Civil	-3836
▁Hol	-3837
▁Islam	-3838
▁worth	-3839
▁patterns	-3840
▁favor	-3841
▁isn	-3842
▁release	-3843
ygen	-3844
▁blue	-3845
▁Hen	-3846
▁lived	-3847
▁Port	-3848
▁friend	-3849
▁running	-3850
clus	-3851
▁everyone	-3852
isher	-3853
Ch	-3854
▁Ber	-3855
▁Thomas	-3856
▁Bro	-3857
force	-3858
▁kid	-3859
▁annual	-3860
▁heavy	-3861
▁explain	-3862
▁instruct	-3863
▁Jer	-3864
▁Atl	-3865
▁emphas	-3866
cont	-3867
▁ign	-3868
▁trib	-3869
▁Tur	-3870
▁details	-3871
▁Energy	-3872
za	-3873
▁urban	-3874
▁generation	-3875
▁meeting	-3876
▁upper	-3877
▁visual	-3878
▁context	-3879
▁creation	-3880
▁transfer	-3881
▁Robert	-3882
▁teach	-3883
▁Island	-3884
ux	-3885
▁complic	-3886
▁express	-3887
ensus	-3888
west	-3889
▁Ser	-3890
▁industrial	-3891
▁mal	-3892
▁grant	-3893
▁fresh	-3894
▁perfect	-3895
▁reprodu	-3896
▁Profess	-3897
▁turned	-3898
▁fig	-3899
▁actual	-3900
▁ap	-3901
▁cand	-3902
▁resource	-3903
ares	-3904
▁offers	-3905
▁disp	-3906
vin	-3907
▁flood	-3908
▁giving	-3909
ped	-3910
ager	-3911
Wh	-3912
▁stim	-3913
respond	-3914
ndrome	-3915
▁structures	-3916
▁phen	-3917
▁race	-3918
▁academ	-3919
▁iron	-3920
▁Bel	-3921
iance	-3922
▁serve	-3923
porary	-3924
▁Sam	-3925
▁hom	-3926
▁piece	-3927
ett	-3928
▁introduced	-3929
▁insect	-3930
▁removed	-3931
crib	-3932
▁watch	-3933
▁univers	-3934
▁esc	-3935
roup	-3936
▁cry	-3937
▁Test	-3938
▁performed	-3939
▁pric	-3940
▁Direct	-3941
▁Catholic	-3942
▁planning	-3943
▁discussion	-3944
rog	-3945
▁Def	-3946
AM	-3947
▁dram	-3948
uild	-3949
▁west	-3950
▁letter	-3951
▁Organ	-3952
▁territ	-3953
ifically	-3954
▁actions	-3955
▁clearly	-3956
▁choose	-3957
▁served	-3958
▁bank	-3959
▁cook	-3960
▁film	-3961
▁Work	-3962
ching	-3963
▁choice	-3964
▁famous	-3965
leg	-3966
▁Library	-3967
▁steps	-3968
▁authors	-3969
▁learned	-3970
▁attract	-3971
▁failure	-3972
astern	-3973
▁degrees	-3974
▁Bas	-3975
▁rot	-3976
▁wrong	-3977
▁battle	-3978
▁covered	-3979
▁tro	-3980
▁sample	-3981
▁operations	-3982
itness	-3983
olved	-3984
▁atmosphere	-3985
▁Gra	-3986
▁fert	-3987
▁disorders	-3988
▁frequently	-3989
ander	-3990
▁buildings	-3991
▁articles	-3992
▁sexual	-3993
bert	-3994
zz	-3995
arge	-3996
▁Students	-3997
▁board	-3998
▁style	-3999
▁experiment	-4000
▁milk	-4001
▁Old	-4002
▁Wind	-4003
....	-4004
▁die	-4005
▁consumption	-4006
▁datab	-4007
▁behavi	-4008
▁religion	-4009
▁Every	-4010
▁Som	-4011
▁elim	-4012
▁Its	-4013
▁accur	-4014
▁vision	-4015
elines	-4016
ias	-4017
▁pages	-4018
▁philosoph	-4019
▁forward	-4020
eces	-4021
▁vary	-4022
stitution	-4023
▁remember	-4024
nam	-4025
▁notes	-4026
pire	-4027
ortion	-4028
▁liqu	-4029
▁temperatures	-4030
▁qual	-4031
▁widely	-4032
▁combination	-4033
▁household	-4034
▁distinct	-4035
atric	-4036
▁Commission	-4037
stronom	-4038
▁extremely	-4039
▁independent	-4040
▁efficient	-4041
▁Up	-4042
▁collabor	-4043
▁absor	-4044
▁transl	-4045
▁alternative	-4046
berg	-4047
▁White	-4048
▁contrast	-4049
▁agg	-4050
ault	-4051
▁CD	-4052
▁Bay	-4053
▁Fre	-4054
▁burn	-4055
▁wear	-4056
▁arr	-4057
aste	-4058
▁trou	-4059
key	-4060
▁hospital	-4061
▁bottom	-4062
change	-4063
▁rul	-4064
orage	-4065
▁sav	-4066
▁graph	-4067
▁mathemat	-4068
▁Mark	-4069
▁inh	-4070
▁numerous	-4071
▁mob	-4072
▁Pacific	-4073
▁volunt	-4074
▁electricity	-4075
▁ple	-4076
▁Treat	-4077
▁coal	-4078
▁waters	-4079
▁Arab	-4080
▁soci	-4081
▁resistance	-4082
▁Flor	-4083
▁pick	-4084
▁opin	-4085
▁Review	-4086
name	-4087
▁Mal	-4088
▁Histor	-4089
▁save	-4090
ounced	-4091
▁Dise	-4092
▁persons	-4093
▁literature	-4094
▁significantly	-4095
▁huge	-4096
▁initial	-4097
ael	-4098
▁components	-4099
▁reb	-4100
▁inform	-4101
aped	-4102
▁task	-4103
▁bodies	-4104
▁island	-4105
▁vo	-4106
order	-4107
met	-4108
▁Both	-4109
iding	-4110
RE	-4111
▁Jud	-4112
ii	-4113
▁guide	-4114
▁circum	-4115
▁architect	-4116
▁lib	-4117
▁<	-4118
▁remained	-4119
▁MD	-4120
▁Mil	-4121
▁finding	-4122
rows	-4123
▁proposed	-4124
▁Mass	-4125
igration	-4126
▁Virginia	-4127
▁infections	-4128
▁square	-4129
atically	-4130
▁technologies	-4131
▁apply	-4132
▁strugg	-4133
▁Second	-4134
▁Army	-4135
▁Conf	-4136
▁director	-4137
ees	-4138
▁Asia	-4139
▁reached	-4140
▁machine	-4141
▁conclud	-4142
▁confirm	-4143
▁determined	-4144
▁homes	-4145
ado	-4146
osystem	-4147
vision	-4148
othes	-4149
▁oxygen	-4150
och	-4151
ria	-4152
aus	-4153
▁message	-4154
▁items	-4155
▁Note	-4156
▁digital	-4157
▁units	-4158
RO	-4159
ressive	-4160
▁win	-4161
▁resulting	-4162
▁detect	-4163
▁Sou	-4164
▁officials	-4165
▁partners	-4166
kin	-4167
▁requirements	-4168
▁policies	-4169
▁dyn	-4170
▁pi	-4171
▁Sal	-4172
ios	-4173
▁Labor	-4174
tical	-4175
▁Rem	-4176
▁foss	-4177
▁authority	-4178
▁Wild	-4179
PS	-4180
▁Office	-4181
▁upd	-4182
cript	-4183
itors	-4184
▁excess	-4185
uted	-4186
▁east	-4187
▁Academ	-4188
▁referred	-4189
erences	-4190
▁correspond	-4191
▁comment	-4192
▁thick	-4193
▁Fam	-4194
▁Op	-4195
▁mo	-4196
▁previously	-4197
▁clos	-4198
▁chief	-4199
▁please	-4200
yd	-4201
▁Carol	-4202
▁freedom	-4203
igen	-4204
▁counter	-4205
▁sand	-4206
anging	-4207
▁glass	-4208
▁college	-4209
▁convers	-4210
▁station	-4211
well	-4212
▁AD	-4213
▁Latin	-4214
▁Muslim	-4215
▁lic	-4216
nic	-4217
▁Women	-4218
▁Smith	-4219
▁Dist	-4220
rane	-4221
aughter	-4222
ributed	-4223
▁appoint	-4224
chers	-4225
▁army	-4226
▁Further	-4227
▁Hel	-4228
▁occurred	-4229
ras	-4230
uit	-4231
▁wet	-4232
▁Charles	-4233
▁becoming	-4234
ype	-4235
▁gain	-4236
▁Mac	-4237
▁bed	-4238
▁existence	-4239
▁happen	-4240
▁speech	-4241
▁wanted	-4242
▁statement	-4243
▁isol	-4244
▁Cle	-4245
▁belong	-4246
▁recommended	-4247
ocal	-4248
▁kept	-4249
▁cere	-4250
▁Louis	-4251
▁tour	-4252
▁hop	-4253
▁sort	-4254
▁Britain	-4255
cipl	-4256
▁cra	-4257
▁Using	-4258
iveness	-4259
▁procedure	-4260
▁secret	-4261
▁Foundation	-4262
rian	-4263
▁exposed	-4264
▁replace	-4265
▁Jose	-4266
▁Stand	-4267
▁Central	-4268
▁www	-4269
▁muscle	-4270
ception	-4271
▁ship	-4272
▁novel	-4273
▁Sl	-4274
▁round	-4275
▁anyone	-4276
rates	-4277
▁supported	-4278
▁grass	-4279
roke	-4280
▁hear	-4281
oyal	-4282
▁operation	-4283
▁Ben	-4284
▁hour	-4285
RI	-4286
▁hur	-4287
▁vaccine	-4288
▁brother	-4289
▁spent	-4290
rations	-4291
▁Like	-4292
▁stars	-4293
cycl	-4294
iful	-4295
▁returned	-4296
htm	-4297
CC	-4298
istan	-4299
▁divers	-4300
▁Environmental	-4301
▁volume	-4302
umn	-4303
ormally	-4304
▁principles	-4305
gl	-4306
▁helped	-4307
otes	-4308
▁drive	-4309
poses	-4310
lamm	-4311
ollow	-4312
▁mostly	-4313
oting	-4314
▁Pub	-4315
riage	-4316
▁organic	-4317
▁kill	-4318
▁prepar	-4319
ishes	-4320
▁decisions	-4321
▁diagnosis	-4322
▁store	-4323
ingly	-4324
▁balance	-4325
ij	-4326
rence	-4327
▁changing	-4328
ville	-4329
▁depression	-4330
▁interpret	-4331
▁farmers	-4332
▁email	-4333
▁concern	-4334
▁fine	-4335
pat	-4336
unction	-4337
▁output	-4338
raction	-4339
▁characteristics	-4340
▁aspects	-4341
▁strategies	-4342
▁doll	-4343
rum	-4344
▁intended	-4345
oo	-4346
▁Franc	-4347
cope	-4348
▁causing	-4349
ania	-4350
▁apparent	-4351
▁internal	-4352
▁signal	-4353
▁opportunities	-4354
▁cycle	-4355
▁Met	-4356
▁intellig	-4357
▁mere	-4358
▁unf	-4359
▁Elect	-4360
▁Land	-4361
▁nutrition	-4362
ulum	-4363
▁UK	-4364
▁institutions	-4365
▁heard	-4366
▁options	-4367
▁layer	-4368
▁Columb	-4369
▁starting	-4370
▁classes	-4371
▁coord	-4372
▁pal	-4373
▁advanced	-4374
▁Federal	-4375
▁decided	-4376
▁completed	-4377
▁experts	-4378
▁violence	-4379
▁vitamin	-4380
▁quar	-4381
lements	-4382
▁Book	-4383
▁trend	-4384
▁largely	-4385
▁Such	-4386
ien	-4387
▁amounts	-4388
▁wealth	-4389
aker	-4390
▁remove	-4391
▁involve	-4392
▁manner	-4393
oper	-4394
▁tim	-4395
▁technique	-4396
ample	-4397
eties	-4398
▁exactly	-4399
wood	-4400
▁nations	-4401
▁Mem	-4402
▁bird	-4403
▁Technology	-4404
gra	-4405
▁pun	-4406
▁chronic	-4407
▁du	-4408
▁god	-4409
▁classroom	-4410
▁Sea	-4411
ball	-4412
▁Lake	-4413
vis	-4414
▁goals	-4415
▁primarily	-4416
▁prefer	-4417
▁forced	-4418
▁background	-4419
▁click	-4420
▁dro	-4421
▁yourself	-4422
▁Div	-4423
urance	-4424
▁brief	-4425
▁western	-4426
cription	-4427
itage	-4428
▁fif	-4429
▁extent	-4430
▁saying	-4431
▁bill	-4432
▁Ir	-4433
▁sufficient	-4434
▁motion	-4435
▁links	-4436
▁Pri	-4437
▁Life	-4438
▁recorded	-4439
▁obvious	-4440
▁surpris	-4441
▁nutri	-4442
▁expression	-4443
▁Nav	-4444
▁interested	-4445
▁innov	-4446
▁indicate	-4447
olid	-4448
roph	-4449
▁compl	-4450
▁prepared	-4451
nel	-4452
▁Nor	-4453
▁satell	-4454
▁comprehens	-4455
▁Sov	-4456
▁assessment	-4457
▁aid	-4458
▁connection	-4459
▁advantage	-4460
field	-4461
▁km	-4462
ulating	-4463
▁snow	-4464
▁risks	-4465
alle	-4466
▁victim	-4467
EL	-4468
▁garden	-4469
▁colleag	-4470
rant	-4471
▁reality	-4472
▁Psych	-4473
zing	-4474
uration	-4475
▁concerns	-4476
▁defic	-4477
ented	-4478
▁Wil	-4479
▁purposes	-4480
▁domestic	-4481
▁Well	-4482
▁park	-4483
▁participants	-4484
▁files	-4485
▁challenge	-4486
▁charge	-4487
mal	-4488
▁seed	-4489
▁trig	-4490
cest	-4491
▁prices	-4492
▁load	-4493
ss	-4494
▁describe	-4495
▁offered	-4496
▁challenges	-4497
▁finally	-4498
▁continues	-4499
▁Last	-4500
▁toxic	-4501
ping	-4502
▁metal	-4503
utive	-4504
▁injury	-4505
▁gets	-4506
eal	-4507
▁Sum	-4508
arrow	-4509
▁chemicals	-4510
OS	-4511
▁linked	-4512
▁Ap	-4513
▁Any	-4514
▁emergency	-4515
▁grand	-4516
▁Henry	-4517
▁incorpor	-4518
oking	-4519
▁appeared	-4520
▁setting	-4521
bal	-4522
▁conver	-4523
ishing	-4524
▁suggested	-4525
▁substant	-4526
▁syndrome	-4527
▁mort	-4528
▁reducing	-4529
▁perman	-4530
▁pret	-4531
▁meant	-4532
▁solid	-4533
akers	-4534
▁encourage	-4535
▁Dar	-4536
▁medications	-4537
onomic	-4538
▁agricultural	-4539
▁engineering	-4540
▁perspect	-4541
OT	-4542
verty	-4543
ota	-4544
rolog	-4545
otic	-4546
▁thin	-4547
▁definition	-4548
▁combined	-4549
▁Studies	-4550
▁landsc	-4551
▁Middle	-4552
▁poverty	-4553
ctic	-4554
▁habitat	-4555
▁cris	-4556
▁horm	-4557
des	-4558
▁wife	-4559
▁biological	-4560
▁storage	-4561
iled	-4562
▁Florida	-4563
▁kil	-4564
▁technical	-4565
▁buy	-4566
▁explore	-4567
▁THE	-4568
ya	-4569
▁core	-4570
▁Yet	-4571
▁regarding	-4572
▁centuries	-4573
▁phenomen	-4574
▁mel	-4575
▁begins	-4576
▁scen	-4577
▁detailed	-4578
amental	-4579
▁library	-4580
tle	-4581
▁samples	-4582
▁greatest	-4583
▁nan	-4584
▁consult	-4585
▁Disc	-4586
▁shar	-4587
▁studied	-4588
▁install	-4589
▁dangerous	-4590
▁ban	-4591
▁particles	-4592
▁subjects	-4593
▁fort	-4594
▁Alex	-4595
▁disapp	-4596
AP	-4597
aur	-4598
▁Find	-4599
▁ready	-4600
▁Expl	-4601
▁rail	-4602
▁otherwise	-4603
▁warming	-4604
hetic	-4605
▁agencies	-4606
▁reaction	-4607
BC	-4608
▁raised	-4609
▁manufacture	-4610
▁AN	-4611
▁conflict	-4612
▁collected	-4613
omy	-4614
ortunately	-4615
▁Budd	-4616
▁Chic	-4617
▁syn	-4618
▁adjust	-4619
▁double	-4620
▁pollution	-4621
▁bud	-4622
▁input	-4623
▁improved	-4624
oxide	-4625
▁portion	-4626
burg	-4627
ears	-4628
med	-4629
▁trial	-4630
ilit	-4631
▁easier	-4632
ructure	-4633
▁pul	-4634
▁connect	-4635
▁facilities	-4636
▁Ste	-4637
state	-4638
▁formation	-4639
onic	-4640
▁Ill	-4641
▁Professor	-4642
RC	-4643
▁spot	-4644
▁enem	-4645
inger	-4646
ellect	-4647
omin	-4648
▁mamm	-4649
bi	-4650
▁Phot	-4651
▁promote	-4652
▁song	-4653
▁Nature	-4654
▁explan	-4655
▁mentioned	-4656
▁Natural	-4657
▁documents	-4658
▁languages	-4659
▁Ter	-4660
▁excell	-4661
aks	-4662
icial	-4663
tion	-4664
▁nav	-4665
▁kinds	-4666
▁Those	-4667
ossible	-4668
▁Pers	-4669
▁containing	-4670
tes	-4671
▁synt	-4672
ags	-4673
▁cast	-4674
▁treatments	-4675
▁ecosystem	-4676
▁universe	-4677
▁weap	-4678
▁multi	-4679
isation	-4680
▁ST	-4681
▁Ken	-4682
▁electrical	-4683
▁leader	-4684
▁experiences	-4685
▁Out	-4686
▁claims	-4687
.|	-4688
▁Class	-4689
board	-4690
▁vast	-4691
▁batter	-4692
▁request	-4693
works	-4694
rich	-4695
ixt	-4696
rier	-4697
▁vul	-4698
▁discover	-4699
li	-4700
▁meat	-4701
▁prison	-4702
olars	-4703
cyclop	-4704
▁frequency	-4705
▁operating	-4706
pal	-4707
▁recognized	-4708
▁Mont	-4709
AD	-4710
▁liver	-4711
▁tested	-4712
▁soldiers	-4713
▁drinking	-4714
▁bright	-4715
▁root	-4716
ifying	-4717
▁Que	-4718
what	-4719
▁Only	-4720
▁Bur	-4721
olute	-4722
▁Report	-4723
▁reduction	-4724
which	-4725
▁argument	-4726
▁deaths	-4727
▁elev	-4728
▁looks	-4729
▁topic	-4730
▁index	-4731
▁revolution	-4732
▁diss	-4733
▁hundreds	-4734
▁Dan	-4735
▁connected	-4736
▁involves	-4737
▁discovery	-4738
▁measured	-4739
US	-4740
▁pray	-4741
▁phase	-4742
▁clim	-4743
iling	-4744
▁subsequ	-4745
emic	-4746
road	-4747
osen	-4748
▁Cancer	-4749
standing	-4750
▁Rad	-4751
plant	-4752
IDS	-4753
▁rural	-4754
▁pieces	-4755
▁Southern	-4756
▁looked	-4757
▁pregnancy	-4758
ava	-4759
▁slightly	-4760
▁seek	-4761
▁Please	-4762
▁Frank	-4763
▁sed	-4764
▁Spec	-4765
inating	-4766
▁forests	-4767
▁Bet	-4768
▁certainly	-4769
▁instrument	-4770
▁Therefore	-4771
ona	-4772
osite	-4773
▁neighbor	-4774
▁happens	-4775
band	-4776
▁sick	-4777
▁morning	-4778
▁renew	-4779
unk	-4780
▁jobs	-4781
▁tried	-4782
▁letters	-4783
▁distingu	-4784
▁Oh	-4785
▁convent	-4786
▁owners	-4787
▁jour	-4788
▁Administ	-4789
▁games	-4790
normal	-4791
▁youth	-4792
col	-4793
▁Bible	-4794
▁fluid	-4795
▁governments	-4796
ded	-4797
ropical	-4798
ocratic	-4799
▁showing	-4800
ognitive	-4801
▁closely	-4802
▁academic	-4803
▁sen	-4804
▁height	-4805
▁mist	-4806
▁divided	-4807
▁band	-4808
▁concerned	-4809
oughly	-4810
lers	-4811
▁eggs	-4812
EM	-4813
inf	-4814
▁periods	-4815
▁stem	-4816
lig	-4817
▁yellow	-4818
eters	-4819
▁Control	-4820
▁practical	-4821
▁Committee	-4822
▁efficiency	-4823
▁Step	-4824
▁interview	-4825
▁alg	-4826
▁pil	-4827
▁Cy	-4828
▁Ox	-4829
▁send	-4830
▁Joseph	-4831
▁Where	-4832
▁Soviet	-4833
▁moon	-4834
▁trust	-4835
▁ancest	-4836
▁fle	-4837
▁Ann	-4838
▁Supp	-4839
▁Rights	-4840
▁millions	-4841
▁expert	-4842
xi	-4843
body	-4844
▁Mo	-4845
point	-4846
▁Company	-4847
ato	-4848
▁selected	-4849
eline	-4850
▁gal	-4851
▁database	-4852
▁rapidly	-4853
▁latter	-4854
▁regional	-4855
▁gar	-4856
going	-4857
▁responsibility	-4858
▁gall	-4859
▁Camb	-4860
▁facts	-4861
▁Ocean	-4862
▁master	-4863
▁Vis	-4864
▁Ham	-4865
▁hem	-4866
▁controlled	-4867
▁explained	-4868
ION	-4869
▁properly	-4870
▁knew	-4871
▁views	-4872
▁haz	-4873
active	-4874
▁motor	-4875
▁felt	-4876
▁Saf	-4877
▁title	-4878
▁Fe	-4879
▁attacks	-4880
▁funding	-4881
Americ	-4882
erves	-4883
rust	-4884
▁police	-4885
▁Peter	-4886
▁implic	-4887
▁credit	-4888
▁spl	-4889
▁chapter	-4890
▁hearing	-4891
▁contem	-4892
▁Tem	-4893
▁ages	-4894
▁Russian	-4895
▁taught	-4896
▁residents	-4897
▁Michael	-4898
fall	-4899
▁Richard	-4900
▁troops	-4901
▁Br	-4902
ML	-4903
▁mainly	-4904
▁fundamental	-4905
▁wonder	-4906
esity	-4907
▁profession	-4908
born	-4909
rete	-4910
▁obtained	-4911
▁Group	-4912
▁surrounding	-4913
▁advance	-4914
▁girls	-4915
▁sin	-4916
▁crops	-4917
▁played	-4918
▁Common	-4919
▁relationships	-4920
▁vegetables	-4921
eria	-4922
ston	-4923
▁follows	-4924
▁typical	-4925
othing	-4926
▁latest	-4927
▁infected	-4928
▁Stat	-4929
▁district	-4930
stood	-4931
▁Del	-4932
ny	-4933
place	-4934
▁diam	-4935
onds	-4936
▁experienced	-4937
DF	-4938
▁advoc	-4939
▁familiar	-4940
▁processing	-4941
ship	-4942
gov	-4943
ding	-4944
▁Long	-4945
▁colleagues	-4946
▁moral	-4947
anges	-4948
▁Through	-4949
ategy	-4950
▁teeth	-4951
▁pip	-4952
▁rand	-4953
▁allowing	-4954
cop	-4955
▁Constitution	-4956
▁lands	-4957
apes	-4958
▁bow	-4959
▁Study	-4960
▁calls	-4961
▁flight	-4962
▁Id	-4963
▁depending	-4964
with	-4965
▁originally	-4966
▁sustainable	-4967
▁Before	-4968
care	-4969
▁stone	-4970
riculum	-4971
▁liquid	-4972
”.	-4973
▁strategy	-4974
CO	-4975
▁sides	-4976
▁Instead	-4977
▁instruction	-4978
▁despite	-4979
▁accepted	-4980
▁Chicago	-4981
ictionary	-4982
ague	-4983
▁principle	-4984
▁hyper	-4985
atever	-4986
▁storm	-4987
▁relevant	-4988
▁advice	-4989
▁random	-4990
▁adopted	-4991
▁onto	-4992
gment	-4993
▁Penn	-4994
ki	-4995
do	-4996
▁helping	-4997
▁dial	-4998
▁happened	-4999
acters	-5000
▁concepts	-5001
▁explains	-5002
ye	-5003
▁effectively	-5004
▁listed	-5005
▁external	-5006
imer	-5007
alse	-5008
▁leads	-5009
roid	-5010
▁seeds	-5011
▁doctors	-5012
ulin	-5013
▁prevention	-5014
▁fell	-5015
▁arms	-5016
▁component	-5017
▁grade	-5018
inet	-5019
▁unless	-5020
▁monitoring	-5021
▁Carolina	-5022
▁floor	-5023
▁selection	-5024
▁visible	-5025
▁mountain	-5026
clusion	-5027
▁Global	-5028
▁Engine	-5029
▁interests	-5030
▁roll	-5031
gal	-5032
▁Data	-5033
▁plastic	-5034
▁chann	-5035
▁specifically	-5036
▁stated	-5037
▁dynam	-5038
pre	-5039
anged	-5040
▁wave	-5041
▁accompl	-5042
▁paid	-5043
▁proteins	-5044
▁salt	-5045
mp	-5046
othe	-5047
ses	-5048
▁thousand	-5049
▁lit	-5050
▁frag	-5051
▁dut	-5052
▁newsp	-5053
▁agency	-5054
▁transform	-5055
▁straight	-5056
▁harvest	-5057
olf	-5058
▁consists	-5059
alian	-5060
▁maximum	-5061
reed	-5062
▁cert	-5063
▁stock	-5064
▁protected	-5065
ipped	-5066
celer	-5067
▁procedures	-5068
.;	-5069
sembly	-5070
▁Get	-5071
▁subs	-5072
▁inches	-5073
stein	-5074
▁indeed	-5075
▁option	-5076
▁feeling	-5077
▁satis	-5078
▁increasingly	-5079
▁vent	-5080
▁notice	-5081
▁depth	-5082
▁san	-5083
itan	-5084
▁goods	-5085
▁Russia	-5086
▁narrow	-5087
dden	-5088
▁consequences	-5089
▁ble	-5090
▁leaving	-5091
▁Among	-5092
▁laboratory	-5093
▁paint	-5094
If	-5095
▁failed	-5096
▁Agricult	-5097
▁entirely	-5098
iced	-5099
▁Prov	-5100
▁Home	-5101
▁commit	-5102
▁Leg	-5103
▁fit	-5104
▁Kore	-5105
▁marine	-5106
▁IN	-5107
▁hunt	-5108
▁Early	-5109
▁aircraft	-5110
▁Fort	-5111
▁flat	-5112
▁Rome	-5113
▁inject	-5114
▁resist	-5115
▁shared	-5116
▁pure	-5117
▁normally	-5118
▁spiritual	-5119
ails	-5120
▁Camp	-5121
▁intellect	-5122
▁possess	-5123
asure	-5124
▁Canadian	-5125
▁allerg	-5126
imens	-5127
▁contribute	-5128
▁Know	-5129
aturally	-5130
war	-5131
resents	-5132
▁Mill	-5133
▁pictures	-5134
▁hit	-5135
▁astronom	-5136
aria	-5137
▁depends	-5138
▁valu	-5139
▁focused	-5140
▁possibly	-5141
▁flowers	-5142
▁faster	-5143
▁potentially	-5144
▁gun	-5145
abil	-5146
▁Times	-5147
alog	-5148
reci	-5149
ective	-5150
▁experiments	-5151
▁awareness	-5152
▁unknown	-5153
▁End	-5154
▁Pan	-5155
▁decline	-5156
▁walls	-5157
▁grown	-5158
▁decade	-5159
▁characters	-5160
▁ther	-5161
▁vehicle	-5162
▁Academy	-5163
▁Pop	-5164
icon	-5165
▁Forest	-5166
ING	-5167
▁accurate	-5168
inction	-5169
▁photograph	-5170
▁Nations	-5171
▁extensive	-5172
▁sector	-5173
▁vulner	-5174
▁impossible	-5175
▁administration	-5176
▁sudden	-5177
▁od	-5178
▁Good	-5179
▁drop	-5180
tic	-5181
▁Despite	-5182
▁Management	-5183
▁reject	-5184
▁circumst	-5185
▁firm	-5186
racy	-5187
▁Color	-5188
▁dust	-5189
▁Gold	-5190
▁valid	-5191
ctor	-5192
stream	-5193
iated	-5194
▁dogs	-5195
▁Haw	-5196
▁critic	-5197
▁wildlife	-5198
?"	-5199
uses	-5200
▁comfort	-5201
▁Exper	-5202
▁figures	-5203
bing	-5204
▁Disease	-5205
▁pig	-5206
opyright	-5207
▁prem	-5208
▁Click	-5209
anta	-5210
hma	-5211
▁raise	-5212
▁util	-5213
▁neut	-5214
▁tun	-5215
▁eastern	-5216
▁Mad	-5217
▁houses	-5218
▁represents	-5219
▁suc	-5220
▁fib	-5221
orter	-5222
▁dedic	-5223
].	-5224
▁pu	-5225
cium	-5226
▁massive	-5227
▁Figure	-5228
▁Resources	-5229
▁discussed	-5230
▁candid	-5231
EP	-5232
▁flex	-5233
▁mur	-5234
▁lose	-5235
▁lik	-5236
▁agriculture	-5237
▁impacts	-5238
▁remaining	-5239
▁Back	-5240
▁Hall	-5241
isp	-5242
▁Italy	-5243
▁Free	-5244
▁assistance	-5245
▁solutions	-5246
kins	-5247
▁appearance	-5248
umber	-5249
▁crisis	-5250
ureau	-5251
▁label	-5252
asks	-5253
▁tiny	-5254
▁Northern	-5255
SS	-5256
enses	-5257
no	-5258
▁identity	-5259
▁OF	-5260
▁unlike	-5261
fl	-5262
▁describes	-5263
icks	-5264
▁ideal	-5265
azine	-5266
▁III	-5267
▁equival	-5268
▁repeated	-5269
▁depos	-5270
▁refers	-5271
▁doubt	-5272
▁Australian	-5273
▁mix	-5274
▁opened	-5275
▁ju	-5276
▁nit	-5277
▁spend	-5278
▁keeping	-5279
▁PM	-5280
hi	-5281
▁Mag	-5282
▁absolute	-5283
▁immun	-5284
▁precise	-5285
zy	-5286
▁abuse	-5287
▁fossil	-5288
▁derived	-5289
rine	-5290
▁excellent	-5291
omach	-5292
▁beautiful	-5293
zen	-5294
▁kn	-5295
ework	-5296
such	-5297
▁voice	-5298
ini	-5299
▁remark	-5300
▁adequ	-5301
▁marked	-5302
▁sets	-5303
cience	-5304
obe	-5305
▁sky	-5306
▁county	-5307
ache	-5308
▁Georg	-5309
▁approaches	-5310
▁Power	-5311
▁worse	-5312
last	-5313
▁||	-5314
down	-5315
throp	-5316
▁bear	-5317
▁Researchers	-5318
▁organized	-5319
anguage	-5320
aud	-5321
▁Wood	-5322
▁possibility	-5323
▁horse	-5324
▁train	-5325
▁Care	-5326
▁expressed	-5327
▁stret	-5328
▁format	-5329
▁Ref	-5330
▁List	-5331
rovers	-5332
▁opinion	-5333
long	-5334
▁inflamm	-5335
▁Sciences	-5336
▁scholars	-5337
oln	-5338
▁conscious	-5339
▁wire	-5340
▁authorities	-5341
inn	-5342
▁computers	-5343
▁debate	-5344
▁producing	-5345
▁corpor	-5346
▁shel	-5347
▁founded	-5348
▁crop	-5349
▁recognize	-5350
oned	-5351
▁lesson	-5352
▁career	-5353
osm	-5354
▁capable	-5355
▁contained	-5356
pping	-5357
▁BC	-5358
▁comments	-5359
▁restrict	-5360
▁Who	-5361
uous	-5362
▁village	-5363
▁cardi	-5364
▁recon	-5365
heast	-5366
▁bones	-5367
▁substance	-5368
▁Fact	-5369
▁understood	-5370
▁formal	-5371
ogle	-5372
▁magnetic	-5373
▁worldwide	-5374
▁Top	-5375
cyclopedia	-5376
▁vessels	-5377
ka	-5378
▁nine	-5379
▁Ext	-5380
▁shell	-5381
IL	-5382
▁Gal	-5383
▁closed	-5384
▁estimates	-5385
▁sequence	-5386
▁budget	-5387
▁apart	-5388
▁phone	-5389
▁Street	-5390
SD	-5391
ena	-5392
indu	-5393
▁Tor	-5394
▁antibiot	-5395
▁Follow	-5396
pass	-5397
▁grav	-5398
▁Lu	-5399
lv	-5400
▁movements	-5401
▁expensive	-5402
▁Columbia	-5403
▁Spain	-5404
▁maps	-5405
▁affects	-5406
ansion	-5407
▁Brown	-5408
▁Special	-5409
▁occasion	-5410
mun	-5411
▁constitution	-5412
▁represented	-5413
▁comprehensive	-5414
rors	-5415
▁pump	-5416
▁diversity	-5417
▁muscles	-5418
fe	-5419
press	-5420
▁destroyed	-5421
hist	-5422
▁guidelines	-5423
▁philosophy	-5424
igenous	-5425
▁minimum	-5426
▁Four	-5427
ait	-5428
▁unus	-5429
▁manage	-5430
inations	-5431
gent	-5432
▁survival	-5433
OU	-5434
athy	-5435
sey	-5436
luding	-5437
▁exchange	-5438
▁math	-5439
▁aw	-5440
▁Whe	-5441
irds	-5442
▁Make	-5443
▁Though	-5444
▁waves	-5445
liam	-5446
▁din	-5447
▁sounds	-5448
▁supplement	-5449
▁Services	-5450
ediatric	-5451
▁decrease	-5452
▁Access	-5453
ifies	-5454
▁Climate	-5455
▁traffic	-5456
▁Have	-5457
▁twenty	-5458
lar	-5459
▁perspective	-5460
▁abund	-5461
▁electronic	-5462
▁Paris	-5463
▁revealed	-5464
▁fruits	-5465
▁Family	-5466
▁Bre	-5467
▁laun	-5468
▁arrived	-5469
aine	-5470
rus	-5471
▁justice	-5472
prise	-5473
CR	-5474
▁recy	-5475
ada	-5476
▁marriage	-5477
▁window	-5478
ymph	-5479
▁Board	-5480
▁Sol	-5481
asp	-5482
▁ethnic	-5483
▁twice	-5484
▁Martin	-5485
pet	-5486
▁Sever	-5487
▁aqu	-5488
▁aren	-5489
▁Det	-5490
▁rid	-5491
▁volunte	-5492
▁description	-5493
▁error	-5494
isters	-5495
▁Addition	-5496
incoln	-5497
▁Agency	-5498
▁Indians	-5499
▁amb	-5500
▁museum	-5501
▁extended	-5502
▁situations	-5503
▁greatly	-5504
▁institution	-5505
olester	-5506
▁Guide	-5507
▁Learning	-5508
▁emotional	-5509
apping	-5510
▁married	-5511
car	-5512
mas	-5513
▁opening	-5514
free	-5515
faces	-5516
▁emp	-5517
▁imper	-5518
▁gender	-5519
▁obtain	-5520
▁plate	-5521
stract	-5522
▁ing	-5523
▁sensitive	-5524
▁entry	-5525
▁era	-5526
▁moist	-5527
▁broken	-5528
▁tells	-5529
▁organisms	-5530
bur	-5531
ua	-5532
▁daughter	-5533
▁myth	-5534
▁neu	-5535
▁conv	-5536
▁Cult	-5537
liament	-5538
▁blog	-5539
example	-5540
▁Secret	-5541
▁permanent	-5542
olesterol	-5543
irty	-5544
ario	-5545
mary	-5546
rastructure	-5547
▁necessarily	-5548
ta	-5549
▁Atlantic	-5550
▁fly	-5551
▁ran	-5552
iate	-5553
▁topics	-5554
▁Revolution	-5555
encing	-5556
called	-5557
▁chrom	-5558
▁medication	-5559
▁push	-5560
▁filled	-5561
▁secondary	-5562
▁exists	-5563
▁aer	-5564
▁agreement	-5565
▁molecules	-5566
”,	-5567
onia	-5568
▁Chem	-5569
▁Copyright	-5570
▁lov	-5571
▁introduction	-5572
▁Micro	-5573
▁parties	-5574
MS	-5575
oster	-5576
uilding	-5577
▁issued	-5578
fish	-5579
▁playing	-5580
▁administr	-5581
▁Scientists	-5582
lets	-5583
▁childhood	-5584
ocracy	-5585
▁Rob	-5586
▁Finally	-5587
▁Bank	-5588
add	-5589
▁stomach	-5590
▁fewer	-5591
▁valuable	-5592
cher	-5593
▁survive	-5594
▁Administration	-5595
CT	-5596
▁acts	-5597
▁replaced	-5598
▁investment	-5599
▁trials	-5600
▁Vict	-5601
▁naturally	-5602
▁talking	-5603
▁fever	-5604
hips	-5605
▁stored	-5606
▁slowly	-5607
agers	-5608
▁poet	-5609
▁deliver	-5610
▁Kh	-5611
▁Wik	-5612
▁helpful	-5613
▁Empire	-5614
edu	-5615
inity	-5616
▁produces	-5617
eck	-5618
anda	-5619
▁concentration	-5620
▁Du	-5621
▁thy	-5622
▁observations	-5623
▁reform	-5624
umes	-5625
icians	-5626
▁vote	-5627
IA	-5628
▁couple	-5629
▁indicates	-5630
▁plat	-5631
▁conventional	-5632
▁Native	-5633
▁Jeff	-5634
▁earthqu	-5635
▁Valley	-5636
▁param	-5637
There	-5638
xiety	-5639
▁arter	-5640
▁Lincoln	-5641
mes	-5642
teen	-5643
▁paralle	-5644
▁discipl	-5645
▁physics	-5646
▁signals	-5647
ctive	-5648
▁department	-5649
▁opposite	-5650
▁Att	-5651
▁schem	-5652
▁Lab	-5653
▁dioxide	-5654
▁motiv	-5655
▁volcan	-5656
aska	-5657
▁joined	-5658
▁immediate	-5659
▁neither	-5660
▁Wall	-5661
▁string	-5662
▁adding	-5663
▁Rock	-5664
▁cognitive	-5665
zil	-5666
▁metab	-5667
ascular	-5668
▁rub	-5669
▁wid	-5670
ola	-5671
oston	-5672
IG	-5673
▁Eastern	-5674
▁epid	-5675
▁rein	-5676
▁gone	-5677
He	-5678
▁supplies	-5679
▁locations	-5680
▁shot	-5681
itudes	-5682
▁limits	-5683
▁acceler	-5684
▁Time	-5685
▁scan	-5686
under	-5687
▁younger	-5688
▁pretty	-5689
ita	-5690
▁resolution	-5691
heric	-5692
rep	-5693
▁gather	-5694
kes	-5695
▁vehicles	-5696
▁Current	-5697
ancing	-5698
▁recovery	-5699
▁Scott	-5700
icide	-5701
aser	-5702
▁coastal	-5703
▁discrim	-5704
▁transmission	-5705
▁Design	-5706
▁obesity	-5707
▁yield	-5708
▁brown	-5709
idden	-5710
▁implementation	-5711
HO	-5712
rans	-5713
▁defe	-5714
ih	-5715
orrow	-5716
▁Director	-5717
ester	-5718
▁greenhouse	-5719
▁sell	-5720
▁Orig	-5721
alysis	-5722
▁generated	-5723
aph	-5724
▁shut	-5725
▁USA	-5726
▁false	-5727
umin	-5728
la	-5729
▁Cat	-5730
▁electron	-5731
▁edge	-5732
iform	-5733
▁propos	-5734
▁accounts	-5735
▁landscape	-5736
▁Three	-5737
▁attached	-5738
▁achieved	-5739
▁extract	-5740
▁horiz	-5741
▁controvers	-5742
▁roots	-5743
▁edition	-5744
▁legislation	-5745
▁Eth	-5746
▁publication	-5747
olve	-5748
▁Mer	-5749
▁curriculum	-5750
▁appreci	-5751
▁af	-5752
▁stages	-5753
▁Ohio	-5754
▁door	-5755
▁circumstances	-5756
cribed	-5757
▁tail	-5758
▁grew	-5759
▁Const	-5760
▁bind	-5761
▁Holy	-5762
▁leadership	-5763
▁Cre	-5764
▁phr	-5765
▁fill	-5766
omic	-5767
▁contamin	-5768
▁mechanism	-5769
▁difficulty	-5770
▁regist	-5771
▁territory	-5772
ibilities	-5773
▁catch	-5774
▁Party	-5775
▁Gard	-5776
▁suffering	-5777
▁Chapter	-5778
▁equivalent	-5779
▁driving	-5780
▁powers	-5781
▁stroke	-5782
▁domin	-5783
▁historic	-5784
▁legisl	-5785
▁announced	-5786
▁abnormal	-5787
What	-5788
comes	-5789
▁cart	-5790
▁oral	-5791
▁Sometimes	-5792
gans	-5793
▁mild	-5794
▁promin	-5795
▁flag	-5796
ishop	-5797
stone	-5798
▁pregnant	-5799
that	-5800
▁diagnosed	-5801
iana	-5802
▁wel	-5803
▁forth	-5804
ulty	-5805
▁toler	-5806
▁smoke	-5807
▁none	-5808
ansas	-5809
▁depart	-5810
ints	-5811
▁routine	-5812
▁Mu	-5813
▁uns	-5814
▁remote	-5815
▁suffer	-5816
▁launch	-5817
▁stick	-5818
▁colors	-5819
▁unable	-5820
▁readers	-5821
▁Add	-5822
▁somewhat	-5823
▁Ma	-5824
ora	-5825
▁medium	-5826
uels	-5827
rating	-5828
▁nearby	-5829
▁galax	-5830
elled	-5831
▁Iran	-5832
▁density	-5833
▁satellite	-5834
LE	-5835
▁cars	-5836
▁injuries	-5837
▁tom	-5838
▁Several	-5839
ifications	-5840
ensions	-5841
▁ships	-5842
html	-5843
▁eld	-5844
▁enhance	-5845
▁Cap	-5846
▁server	-5847
▁Bab	-5848
pread	-5849
:||	-5850
▁hus	-5851
iology	-5852
▁tal	-5853
▁managed	-5854
▁delay	-5855
▁Viet	-5856
exp	-5857
▁camera	-5858
▁kidney	-5859
ceived	-5860
▁Rom	-5861
▁generate	-5862
▁consistent	-5863
level	-5864
▁sports	-5865
▁transportation	-5866
igation	-5867
.'	-5868
▁ax	-5869
▁vital	-5870
tenance	-5871
▁chart	-5872
▁Eff	-5873
▁carefully	-5874
▁Young	-5875
▁prohib	-5876
▁supposed	-5877
eenth	-5878
organ	-5879
ella	-5880
orous	-5881
hand	-5882
gu	-5883
hop	-5884
▁ru	-5885
hered	-5886
▁fixed	-5887
▁Lib	-5888
▁Royal	-5889
zed	-5890
Al	-5891
▁Boston	-5892
▁cloud	-5893
▁agreed	-5894
▁Naz	-5895
utch	-5896
▁sight	-5897
▁estimate	-5898
▁surve	-5899
▁studying	-5900
▁Mel	-5901
idespread	-5902
▁Page	-5903
▁tow	-5904
▁bio	-5905
▁answers	-5906
▁seeing	-5907
▁calcium	-5908
▁border	-5909
▁diverse	-5910
Ar	-5911
▁nutrients	-5912
▁mixed	-5913
▁spok	-5914
reland	-5915
▁digest	-5916
▁university	-5917
oral	-5918
▁wish	-5919
▁witness	-5920
▁nurs	-5921
▁pra	-5922
▁tube	-5923
ercury	-5924
▁outl	-5925
ployment	-5926
▁negot	-5927
▁veter	-5928
▁pull	-5929
▁instruments	-5930
▁prove	-5931
▁Google	-5932
▁drawn	-5933
▁evaluation	-5934
flow	-5935
▁rising	-5936
▁Oxford	-5937
▁touch	-5938
▁Dou	-5939
abled	-5940
▁infrastructure	-5941
▁Johnson	-5942
▁seemed	-5943
▁clust	-5944
▁election	-5945
▁resulted	-5946
▁attend	-5947
▁fertil	-5948
▁islands	-5949
▁speaking	-5950
▁accum	-5951
▁Survey	-5952
but	-5953
▁courses	-5954
osion	-5955
▁Keep	-5956
▁cholesterol	-5957
▁dream	-5958
American	-5959
▁IP	-5960
cling	-5961
▁Laboratory	-5962
▁Sk	-5963
▁Conservation	-5964
▁sod	-5965
sylv	-5966
▁tumor	-5967
▁regulations	-5968
▁row	-5969
▁Writ	-5970
▁declared	-5971
▁consumers	-5972
▁ends	-5973
▁Ireland	-5974
As	-5975
igrants	-5976
▁regularly	-5977
CS	-5978
weight	-5979
▁crim	-5980
▁babies	-5981
usal	-5982
▁successfully	-5983
▁approved	-5984
agon	-5985
▁entered	-5986
▁adoles	-5987
▁poison	-5988
▁pounds	-5989
▁acknow	-5990
▁persist	-5991
ooth	-5992
▁crow	-5993
▁remind	-5994
▁inhib	-5995
▁prepare	-5996
▁merely	-5997
vironments	-5998
adel	-5999
▁Adv	-6000
▁fighting	-6001
spec	-6002
orses	-6003
▁tips	-6004
▁Prop	-6005
▁insects	-6006
asive	-6007
rd	-6008
▁Italian	-6009
▁minim	-6010
▁transition	-6011
▁Scot	-6012
▁Gree	-6013
▁obst	-6014
isco	-6015
▁chosen	-6016
▁Brazil	-6017
▁lies	-6018
ailed	-6019
ication	-6020
▁percentage	-6021
▁hypothes	-6022
▁Conn	-6023
▁explanation	-6024
▁employment	-6025
▁Sat	-6026
igan	-6027
▁foundation	-6028
ione	-6029
een	-6030
▁Meth	-6031
▁whatever	-6032
greg	-6033
▁Sup	-6034
oven	-6035
▁secure	-6036
▁variable	-6037
▁knows	-6038
▁blow	-6039
▁launched	-6040
▁rocks	-6041
You	-6042
▁mand	-6043
▁funds	-6044
▁stands	-6045
IP	-6046
▁division	-6047
ading	-6048
▁standing	-6049
▁Coast	-6050
▁involving	-6051
▁Polic	-6052
▁facilit	-6053
▁lect	-6054
▁ingred	-6055
▁aband	-6056
▁Teac	-6057
▁examine	-6058
▁comparison	-6059
New	-6060
▁mice	-6061
▁dollars	-6062
BS	-6063
▁thor	-6064
▁composition	-6065
▁rivers	-6066
▁cultiv	-6067
▁nest	-6068
▁choices	-6069
▁editor	-6070
▁employed	-6071
▁download	-6072
▁expansion	-6073
▁decide	-6074
▁Str	-6075
aked	-6076
▁ultimately	-6077
▁Est	-6078
top	-6079
otion	-6080
▁switch	-6081
▁Darwin	-6082
▁widespread	-6083
▁Encyclopedia	-6084
▁Fund	-6085
▁award	-6086
tra	-6087
▁Tre	-6088
▁neck	-6089
sylvania	-6090
ceeded	-6091
▁closer	-6092
▁composed	-6093
▁leaf	-6094
ificial	-6095
▁elected	-6096
osph	-6097
▁Ep	-6098
asters	-6099
▁Heb	-6100
▁bread	-6101
▁intelligence	-6102
▁invent	-6103
▁lessons	-6104
▁tasks	-6105
▁intellectual	-6106
acing	-6107
▁arrange	-6108
▁relation	-6109
▁principal	-6110
▁physician	-6111
▁distur	-6112
▁signed	-6113
▁turns	-6114
',	-6115
vard	-6116
▁Sil	-6117
▁passage	-6118
xts	-6119
▁rank	-6120
▁mode	-6121
▁desire	-6122
▁struggle	-6123
▁Cambridge	-6124
▁boys	-6125
ocation	-6126
▁mit	-6127
angered	-6128
▁destruction	-6129
▁Georgia	-6130
▁Kingdom	-6131
▁males	-6132
▁sweet	-6133
▁sharing	-6134
▁reserved	-6135
▁Sign	-6136
▁debt	-6137
▁weapons	-6138
▁afford	-6139
▁association	-6140
▁feeding	-6141
▁Men	-6142
▁column	-6143
▁biology	-6144
▁legs	-6145
ults	-6146
phone	-6147
AA	-6148
sen	-6149
rary	-6150
▁sole	-6151
cul	-6152
▁participate	-6153
arant	-6154
erals	-6155
▁copyright	-6156
▁Learn	-6157
▁wants	-6158
▁accident	-6159
▁spending	-6160
▁fract	-6161
▁improving	-6162
▁flo	-6163
▁alle	-6164
▁infant	-6165
▁script	-6166
▁shift	-6167
▁politics	-6168
▁smoking	-6169
▁commission	-6170
▁centers	-6171
▁inner	-6172
▁Nov	-6173
▁lin	-6174
▁positions	-6175
▁Jo	-6176
▁Creat	-6177
▁District	-6178
antly	-6179
▁truly	-6180
▁asthma	-6181
▁dedicated	-6182
▁architecture	-6183
▁Sym	-6184
▁overl	-6185
▁networks	-6186
▁Take	-6187
▁Wildlife	-6188
▁Grand	-6189
▁Look	-6190
▁anxiety	-6191
▁conference	-6192
▁("	-6193
heimer	-6194
▁Change	-6195
▁meters	-6196
▁TV	-6197
rison	-6198
▁Super	-6199
▁Den	-6200
▁zone	-6201
▁generations	-6202
▁recommendations	-6203
▁undert	-6204
▁writer	-6205
▁honor	-6206
abits	-6207
etics	-6208
▁Bill	-6209
▁runs	-6210
▁platform	-6211
▁recept	-6212
▁sections	-6213
▁perm	-6214
▁fourth	-6215
▁chest	-6216
ivery	-6217
▁supports	-6218
▁Pennsylvania	-6219
▁chain	-6220
▁ske	-6221
▁facility	-6222
▁Prevention	-6223
▁intake	-6224
▁Irish	-6225
▁Big	-6226
▁strongly	-6227
ishment	-6228
avery	-6229
▁cryst	-6230
▁Division	-6231
operation	-6232
▁Hill	-6233
peror	-6234
▁intervention	-6235
wing	-6236
▁trouble	-6237
▁simpl	-6238
▁modified	-6239
▁Quest	-6240
▁join	-6241
ashion	-6242
▁Ari	-6243
itative	-6244
inking	-6245
▁enable	-6246
▁mobile	-6247
▁Windows	-6248
esis	-6249
lishing	-6250
▁organs	-6251
uing	-6252
▁holds	-6253
▁archae	-6254
ibl	-6255
erted	-6256
▁nerve	-6257
▁scientist	-6258
▁Gr	-6259
pes	-6260
▁Comput	-6261
▁Community	-6262
▁enemy	-6263
▁MS	-6264
▁blind	-6265
▁females	-6266
▁environments	-6267
▁frequent	-6268
▁ended	-6269
▁Ver	-6270
▁fishing	-6271
▁opposed	-6272
▁Pet	-6273
▁feelings	-6274
▁prev	-6275
▁Source	-6276
▁ratio	-6277
▁Pract	-6278
▁competition	-6279
▁hero	-6280
▁ille	-6281
▁explo	-6282
▁independence	-6283
roat	-6284
▁regul	-6285
eper	-6286
▁considerable	-6287
▁inher	-6288
")	-6289
rey	-6290
▁Online	-6291
▁Dig	-6292
iodiversity	-6293
▁Gar	-6294
▁Hy	-6295
▁theore	-6296
▁Lin	-6297
erior	-6298
▁indicated	-6299
▁arrest	-6300
▁housing	-6301
▁lifest	-6302
iration	-6303
▁slaves	-6304
gi	-6305
iah	-6306
▁evil	-6307
▁matters	-6308
bour	-6309
▁teen	-6310
▁pool	-6311
▁dose	-6312
▁acres	-6313
oir	-6314
▁electro	-6315
ca	-6316
▁willing	-6317
▁maintained	-6318
▁Non	-6319
▁rig	-6320
icit	-6321
▁micros	-6322
▁Author	-6323
▁Age	-6324
▁controls	-6325
CL	-6326
▁Never	-6327
▁outbre	-6328
▁papers	-6329
▁Security	-6330
▁ath	-6331
▁hole	-6332
▁cultures	-6333
enza	-6334
▁hydrogen	-6335
▁define	-6336
▁demonstrated	-6337
▁wound	-6338
▁strict	-6339
▁provider	-6340
▁Unf	-6341
inson	-6342
▁creates	-6343
▁tons	-6344
▁Sir	-6345
▁officers	-6346
RA	-6347
▁walking	-6348
▁Colorado	-6349
▁refuge	-6350
▁Swed	-6351
▁proved	-6352
▁oblig	-6353
earch	-6354
▁starts	-6355
oples	-6356
uset	-6357
▁parallel	-6358
ritis	-6359
▁roof	-6360
▁Jac	-6361
▁captured	-6362
▁receiving	-6363
▁responses	-6364
▁EPA	-6365
▁conqu	-6366
)|	-6367
anes	-6368
ifest	-6369
isk	-6370
▁Obama	-6371
▁claimed	-6372
▁Van	-6373
▁lots	-6374
▁Force	-6375
▁pair	-6376
ean	-6377
▁Heart	-6378
▁rarely	-6379
ima	-6380
▁drawing	-6381
▁plays	-6382
▁employees	-6383
▁markets	-6384
usetts	-6385
▁sought	-6386
▁thoughts	-6387
emia	-6388
▁zero	-6389
▁alter	-6390
▁ahead	-6391
osh	-6392
▁hun	-6393
achusetts	-6394
▁mechanisms	-6395
scale	-6396
▁hydro	-6397
▁constructed	-6398
▁recognition	-6399
▁soul	-6400
▁crime	-6401
▁intest	-6402
▁lie	-6403
alm	-6404
▁adm	-6405
▁painting	-6406
▁tropical	-6407
▁Low	-6408
▁committed	-6409
▁reader	-6410
▁manufacturing	-6411
while	-6412
▁maintenance	-6413
▁screening	-6414
▁incl	-6415
▁capture	-6416
ogue	-6417
▁television	-6418
▁lymph	-6419
▁orbit	-6420
▁underlying	-6421
▁participation	-6422
▁texts	-6423
▁theories	-6424
▁gluc	-6425
▁stable	-6426
▁Confed	-6427
erent	-6428
▁boy	-6429
▁preval	-6430
▁ordered	-6431
alls	-6432
▁Network	-6433
then	-6434
itals	-6435
▁Prince	-6436
▁Victor	-6437
ums	-6438
urches	-6439
▁proportion	-6440
itter	-6441
▁burning	-6442
gs	-6443
▁insurance	-6444
ighter	-6445
▁layers	-6446
▁measurements	-6447
abric	-6448
▁Jul	-6449
ostic	-6450
ady	-6451
ushed	-6452
riers	-6453
IM	-6454
▁bomb	-6455
earing	-6456
▁conclusion	-6457
▁supporting	-6458
▁Supreme	-6459
▁Gulf	-6460
bar	-6461
char	-6462
▁noise	-6463
▁professionals	-6464
OL	-6465
▁newly	-6466
▁unusual	-6467
▁exception	-6468
herent	-6469
▁route	-6470
▁crew	-6471
▁viruses	-6472
CD	-6473
adelph	-6474
▁agents	-6475
▁artists	-6476
▁Hospital	-6477
▁Mos	-6478
onn	-6479
▁medicines	-6480
▁Language	-6481
▁improvement	-6482
▁categories	-6483
▁instructions	-6484
ipedia	-6485
▁Open	-6486
▁Check	-6487
▁Tim	-6488
▁defense	-6489
▁compounds	-6490
▁stre	-6491
▁Massachusetts	-6492
▁Corn	-6493
▁disaster	-6494
▁McC	-6495
aded	-6496
▁attempts	-6497
▁mortality	-6498
iral	-6499
▁crucial	-6500
▁circuit	-6501
▁Pak	-6502
▁consumer	-6503
Is	-6504
illa	-6505
▁prompt	-6506
occ	-6507
▁kilomet	-6508
▁operate	-6509
eor	-6510
▁trip	-6511
▁Asian	-6512
▁memb	-6513
▁installed	-6514
▁purchase	-6515
ivered	-6516
Ph	-6517
ey	-6518
▁plus	-6519
▁framework	-6520
▁appointed	-6521
orders	-6522
▁Sand	-6523
▁Avoid	-6524
▁danger	-6525
▁breathing	-6526
▁pharm	-6527
medi	-6528
▁Similar	-6529
▁sacr	-6530
▁solve	-6531
produ	-6532
igned	-6533
▁adequate	-6534
▁proof	-6535
urt	-6536
orph	-6537
ocy	-6538
▁Ven	-6539
▁substances	-6540
▁mathematics	-6541
umps	-6542
▁arts	-6543
▁biggest	-6544
▁planets	-6545
▁demonstrate	-6546
CE	-6547
▁cm	-6548
▁Nut	-6549
ricts	-6550
▁branch	-6551
word	-6552
▁Sund	-6553
▁tall	-6554
HD	-6555
▁reactions	-6556
▁id	-6557
▁peak	-6558
▁criteria	-6559
▁tract	-6560
ette	-6561
▁fold	-6562
▁impl	-6563
▁towns	-6564
▁Ask	-6565
▁acids	-6566
adelphia	-6567
▁wasn	-6568
▁relief	-6569
▁Po	-6570
adder	-6571
iratory	-6572
uracy	-6573
▁escape	-6574
▁orient	-6575
▁lists	-6576
▁fairly	-6577
▁cited	-6578
▁drought	-6579
▁businesses	-6580
▁victims	-6581
▁machines	-6582
▁swim	-6583
An	-6584
▁Ira	-6585
▁handle	-6586
▁breeding	-6587
▁photo	-6588
▁Father	-6589
venue	-6590
▁pron	-6591
▁beliefs	-6592
▁Arctic	-6593
▁suitable	-6594
acu	-6595
▁carrying	-6596
ENT	-6597
▁Bureau	-6598
▁DO	-6599
ano	-6600
▁interaction	-6601
▁cutting	-6602
▁aspect	-6603
▁interpre	-6604
▁wine	-6605
▁Unfortunately	-6606
bles	-6607
▁examined	-6608
▁contemporary	-6609
▁steel	-6610
▁Obs	-6611
▁empt	-6612
▁Table	-6613
▁stations	-6614
▁Sar	-6615
▁Francisco	-6616
▁subsequent	-6617
▁intense	-6618
including	-6619
▁Kar	-6620
▁Christians	-6621
▁exclus	-6622
▁happy	-6623
ipping	-6624
▁vulnerable	-6625
▁Star	-6626
▁frame	-6627
prof	-6628
▁withd	-6629
▁Books	-6630
▁scene	-6631
▁directed	-6632
rav	-6633
ether	-6634
▁Moon	-6635
▁whereas	-6636
elescope	-6637
▁outcomes	-6638
ograp	-6639
▁holding	-6640
▁Section	-6641
'.	-6642
▁drain	-6643
▁Alz	-6644
▁substantial	-6645
▁neuro	-6646
▁journey	-6647
ala	-6648
▁beings	-6649
▁distributed	-6650
▁integrated	-6651
▁volt	-6652
DP	-6653
irt	-6654
▁Plant	-6655
ippi	-6656
mail	-6657
▁trained	-6658
▁Er	-6659
▁PC	-6660
apse	-6661
▁insulin	-6662
▁mos	-6663
etime	-6664
ourage	-6665
▁confirmed	-6666
▁assigned	-6667
▁roughly	-6668
rays	-6669
quar	-6670
▁Pot	-6671
▁Diff	-6672
▁Hebrew	-6673
▁covers	-6674
ounce	-6675
▁scar	-6676
▁cav	-6677
▁transf	-6678
▁autism	-6679
▁Organization	-6680
▁earliest	-6681
▁Islamic	-6682
▁cattle	-6683
▁resident	-6684
▁banks	-6685
theless	-6686
▁lake	-6687
▁examination	-6688
▁mac	-6689
▁behaviors	-6690
▁gradually	-6691
▁fasc	-6692
▁AS	-6693
▁husband	-6694
▁rab	-6695
rous	-6696
▁street	-6697
ugh	-6698
▁guarant	-6699
how	-6700
▁ov	-6701
▁Aff	-6702
▁match	-6703
▁permission	-6704
▁AM	-6705
▁delivered	-6706
▁Indust	-6707
▁giant	-6708
ols	-6709
▁clin	-6710
▁fro	-6711
inois	-6712
izer	-6713
IR	-6714
▁horses	-6715
▁ring	-6716
▁granted	-6717
▁nose	-6718
▁coff	-6719
acco	-6720
▁raw	-6721
▁inflammation	-6722
▁uncertain	-6723
▁Tom	-6724
▁Hand	-6725
▁silver	-6726
▁Does	-6727
▁shop	-6728
▁turb	-6729
▁View	-6730
▁Treatment	-6731
▁presentation	-6732
▁Rh	-6733
▁concerning	-6734
cons	-6735
▁Down	-6736
▁senior	-6737
▁harmful	-6738
▁tissues	-6739
▁AND	-6740
▁shock	-6741
▁Philadelphia	-6742
▁fisher	-6743
▁Alzheimer	-6744
▁therap	-6745
isdom	-6746
▁committee	-6747
▁Conference	-6748
▁manip	-6749
▁enforce	-6750
outs	-6751
otherapy	-6752
▁universal	-6753
▁Beh	-6754
▁conven	-6755
▁;	-6756
orith	-6757
▁mountains	-6758
▁laid	-6759
elfare	-6760
▁essentially	-6761
▁Pakistan	-6762
▁delivery	-6763
▁Equ	-6764
▁finds	-6765
▁objective	-6766
▁Mississ	-6767
ucky	-6768
▁Islands	-6769
▁spacecraft	-6770
▁preced	-6771
istical	-6772
▁molecular	-6773
otton	-6774
▁cards	-6775
▁cancers	-6776
▁Secretary	-6777
ude	-6778
▁Ly	-6779
▁Modern	-6780
▁Bul	-6781
▁Michigan	-6782
▁writes	-6783
uts	-6784
hea	-6785
▁config	-6786
▁planned	-6787
▁Far	-6788
iary	-6789
▁Next	-6790
▁influenced	-6791
▁counsel	-6792
▁suffered	-6793
arsh	-6794
▁Mult	-6795
▁sentence	-6796
▁protocol	-6797
?”	-6798
▁Call	-6799
▁Oper	-6800
▁enorm	-6801
▁circle	-6802
▁Convention	-6803
bra	-6804
▁ment	-6805
▁outer	-6806
▁nerv	-6807
▁putting	-6808
▁Perhaps	-6809
▁careful	-6810
▁infants	-6811
▁Fair	-6812
▁Cross	-6813
▁ongoing	-6814
▁concluded	-6815
▁Py	-6816
▁grain	-6817
▁Harvard	-6818
azing	-6819
▁holid	-6820
▁furn	-6821
▁printed	-6822
▁usual	-6823
▁colour	-6824
▁opposition	-6825
UN	-6826
▁chick	-6827
▁implications	-6828
eren	-6829
iat	-6830
▁Ut	-6831
asty	-6832
night	-6833
▁tight	-6834
▁Contin	-6835
▁serving	-6836
▁neur	-6837
▁warning	-6838
▁habits	-6839
▁tank	-6840
▁fiber	-6841
eless	-6842
▁pestic	-6843
▁encouraged	-6844
odox	-6845
▁ceremon	-6846
uality	-6847
▁Fire	-6848
▁highlight	-6849
▁optim	-6850
▁Polit	-6851
▁quarter	-6852
▁plane	-6853
hyth	-6854
pling	-6855
▁bridge	-6856
▁inhabit	-6857
▁shif	-6858
▁Wal	-6859
▁cats	-6860
▁terror	-6861
orted	-6862
▁Safety	-6863
▁taste	-6864
▁union	-6865
thritis	-6866
▁audience	-6867
▁effectiveness	-6868
▁significance	-6869
rolled	-6870
▁Init	-6871
▁seeking	-6872
▁fed	-6873
ods	-6874
▁concrete	-6875
▁players	-6876
▁calories	-6877
▁Minister	-6878
▁compris	-6879
hesis	-6880
▁engage	-6881
▁programming	-6882
▁moves	-6883
▁angle	-6884
eness	-6885
▁Illinois	-6886
▁slavery	-6887
▁Exam	-6888
▁Material	-6889
▁narr	-6890
▁gro	-6891
▁blocks	-6892
▁IV	-6893
▁Protection	-6894
OC	-6895
▁rice	-6896
onomy	-6897
using	-6898
▁category	-6899
▁AP	-6900
▁Iraq	-6901
gers	-6902
▁accuracy	-6903
▁guard	-6904
▁Policy	-6905
▁passing	-6906
▁turning	-6907
from	-6908
▁absence	-6909
▁threatened	-6910
▁Cub	-6911
▁wait	-6912
▁evolved	-6913
sts	-6914
▁evaluate	-6915
▁slave	-6916
▁damaged	-6917
ani	-6918
▁caught	-6919
▁taxes	-6920
▁cosm	-6921
abul	-6922
▁interpretation	-6923
OM	-6924
▁stead	-6925
▁interactions	-6926
▁messages	-6927
▁Again	-6928
▁partner	-6929
uma	-6930
▁mm	-6931
▁surfaces	-6932
▁elsewhere	-6933
icy	-6934
▁equally	-6935
▁branches	-6936
▁forg	-6937
▁prominent	-6938
▁Dictionary	-6939
EE	-6940
class	-6941
inite	-6942
▁artist	-6943
▁superior	-6944
▁Agriculture	-6945
▁paras	-6946
▁visitors	-6947
▁Less	-6948
▁clothing	-6949
▁epis	-6950
HA	-6951
▁Lee	-6952
▁ye	-6953
▁tea	-6954
▁kit	-6955
▁Pen	-6956
%)	-6957
cel	-6958
▁listen	-6959
▁Furthermore	-6960
▁designs	-6961
▁meal	-6962
▁compare	-6963
▁flav	-6964
▁conserv	-6965
erman	-6966
▁centre	-6967
spe	-6968
▁sit	-6969
aired	-6970
▁gained	-6971
▁behaviour	-6972
▁mothers	-6973
▁stimul	-6974
rot	-6975
▁polar	-6976
▁battery	-6977
▁statistics	-6978
▁Mississippi	-6979
▁assume	-6980
ounter	-6981
▁neighborhood	-6982
unicip	-6983
▁photos	-6984
▁adds	-6985
usalem	-6986
▁Historical	-6987
etary	-6988
▁lungs	-6989
▁investigation	-6990
irth	-6991
▁Form	-6992
▁sheet	-6993
▁Edward	-6994
▁gap	-6995
ups	-6996
▁hosp	-6997
▁seconds	-6998
▁measurement	-6999
▁AL	-7000
▁AIDS	-7001
▁Navy	-7002
▁renewable	-7003
▁finished	-7004
▁AT	-7005
▁calling	-7006
▁communicate	-7007
▁Pass	-7008
▁Fred	-7009
▁functional	-7010
▁creative	-7011
▁temple	-7012
▁presents	-7013
▁variation	-7014
emb	-7015
▁connections	-7016
lymp	-7017
▁arguments	-7018
▁sharp	-7019
▁Ol	-7020
sell	-7021
▁detected	-7022
▁les	-7023
sets	-7024
▁Zeal	-7025
▁isolated	-7026
▁Senate	-7027
▁respectively	-7028
▁Indeed	-7029
ami	-7030
▁psychological	-7031
▁mechanical	-7032
▁Lo	-7033
▁butter	-7034
isted	-7035
▁combat	-7036
▁disabilities	-7037
ptions	-7038
ouds	-7039
▁falls	-7040
▁Gall	-7041
▁fer	-7042
▁hazard	-7043
▁versions	-7044
▁acquired	-7045
▁ourselves	-7046
▁filter	-7047
erty	-7048
▁van	-7049
▁apparently	-7050
▁inn	-7051
▁Card	-7052
▁virtual	-7053
agan	-7054
▁preparation	-7055
ecess	-7056
▁owner	-7057
▁continuous	-7058
▁Justice	-7059
▁Cast	-7060
▁roads	-7061
▁ordinary	-7062
ographical	-7063
▁fabric	-7064
▁lifestyle	-7065
▁worship	-7066
▁skill	-7067
▁Maryland	-7068
▁Drug	-7069
ibraries	-7070
▁exped	-7071
▁cub	-7072
▁chlor	-7073
▁regarded	-7074
▁beneficial	-7075
▁argued	-7076
▁imaging	-7077
position	-7078
▁brings	-7079
▁Battle	-7080
▁settlement	-7081
▁Bus	-7082
▁viewed	-7083
charge	-7084
▁array	-7085
▁phenomenon	-7086
▁peoples	-7087
▁Los	-7088
▁minute	-7089
yal	-7090
▁rose	-7091
▁Moreover	-7092
▁jur	-7093
▁preventing	-7094
▁corner	-7095
▁Mean	-7096
▁bath	-7097
yles	-7098
▁Sing	-7099
▁infect	-7100
▁panel	-7101
▁Hawai	-7102
▁Palest	-7103
▁Year	-7104
▁hormone	-7105
athered	-7106
▁glucose	-7107
▁accompan	-7108
dis	-7109
▁EU	-7110
▁Zealand	-7111
▁chromos	-7112
▁Christmas	-7113
▁pref	-7114
▁Jerusalem	-7115
oured	-7116
▁advert	-7117
▁evolutionary	-7118
abeth	-7119
▁Wed	-7120
▁fashion	-7121
▁dramatic	-7122
▁artificial	-7123
erly	-7124
itivity	-7125
▁interface	-7126
▁jump	-7127
▁settled	-7128
▁realize	-7129
▁orb	-7130
▁algorith	-7131
▁Heritage	-7132
▁reliable	-7133
▁Stan	-7134
▁Christianity	-7135
nee	-7136
▁cab	-7137
▁engaged	-7138
▁engineers	-7139
▁defend	-7140
rin	-7141
▁Centre	-7142
▁errors	-7143
▁collaboration	-7144
▁seat	-7145
▁bringing	-7146
.).	-7147
▁spectrum	-7148
▁Lew	-7149
▁stuff	-7150
▁dates	-7151
▁fellow	-7152
ouri	-7153
▁complicated	-7154
▁Eliz	-7155
▁experimental	-7156
▁asking	-7157
▁Little	-7158
▁characterized	-7159
ommod	-7160
▁gases	-7161
▁dependent	-7162
▁coverage	-7163
oom	-7164
▁heads	-7165
▁variables	-7166
▁discrimination	-7167
▁complications	-7168
▁acute	-7169
▁transp	-7170
▁domain	-7171
▁missing	-7172
],	-7173
▁Liter	-7174
▁offering	-7175
▁mining	-7176
esides	-7177
▁tooth	-7178
▁thread	-7179
ensed	-7180
roduction	-7181
mod	-7182
▁Olymp	-7183
enger	-7184
▁sevent	-7185
▁antibiotics	-7186
▁Typ	-7187
net	-7188
▁judge	-7189
bean	-7190
opher	-7191
▁Date	-7192
▁Parent	-7193
making	-7194
rowing	-7195
▁concentrations	-7196
▁treating	-7197
▁session	-7198
sm	-7199
▁Ur	-7200
▁voc	-7201
▁Ariz	-7202
▁usage	-7203
▁expanded	-7204
▁nervous	-7205
ba	-7206
▁heavily	-7207
▁cham	-7208
▁DC	-7209
▁Ok	-7210
haust	-7211
ilation	-7212
▁writers	-7213
▁diameter	-7214
eh	-7215
olk	-7216
▁Mid	-7217
thodox	-7218
▁tribes	-7219
▁researcher	-7220
▁confidence	-7221
eli	-7222
▁pointed	-7223
▁observation	-7224
▁Resp	-7225
▁lights	-7226
▁accessible	-7227
ixture	-7228
▁tumors	-7229
▁separated	-7230
▁Max	-7231
▁urine	-7232
▁Light	-7233
iments	-7234
▁aged	-7235
angle	-7236
▁brows	-7237
▁repair	-7238
▁mathematical	-7239
▁emphasis	-7240
ieval	-7241
▁Saint	-7242
▁definite	-7243
▁Hor	-7244
regon	-7245
▁earn	-7246
▁Doc	-7247
▁spin	-7248
▁photographs	-7249
▁Alexander	-7250
▁occurring	-7251
▁fulf	-7252
pled	-7253
)||	-7254
▁guidance	-7255
▁extend	-7256
▁farming	-7257
▁establishment	-7258
▁oldest	-7259
▁stores	-7260
acts	-7261
▁updated	-7262
▁conj	-7263
http	-7264
oric	-7265
▁plain	-7266
elve	-7267
▁rational	-7268
▁Assess	-7269
▁myst	-7270
▁contributed	-7271
▁settings	-7272
aints	-7273
▁argue	-7274
icious	-7275
▁serves	-7276
▁outcome	-7277
▁Cam	-7278
▁supplements	-7279
▁Start	-7280
▁Engineering	-7281
chen	-7282
▁CDC	-7283
▁racial	-7284
▁player	-7285
quit	-7286
Un	-7287
▁fet	-7288
▁Later	-7289
▁communications	-7290
raham	-7291
▁Coll	-7292
century	-7293
▁Die	-7294
inder	-7295
▁removal	-7296
▁charged	-7297
▁decreased	-7298
vation	-7299
▁Type	-7300
def	-7301
BM	-7302
▁intern	-7303
▁Reference	-7304
▁formula	-7305
▁vegetation	-7306
▁gram	-7307
▁funded	-7308
▁newspaper	-7309
▁Fed	-7310
▁copper	-7311
▁holes	-7312
zone	-7313
▁cup	-7314
▁districts	-7315
▁Tri	-7316
otal	-7317
▁moderate	-7318
ailability	-7319
▁descript	-7320
▁radical	-7321
▁Frid	-7322
ogether	-7323
▁buff	-7324
ologic	-7325
▁mir	-7326
▁irrit	-7327
▁owned	-7328
▁Still	-7329
▁carb	-7330
▁mineral	-7331
▁Key	-7332
▁surge	-7333
▁orders	-7334
▁item	-7335
zer	-7336
▁Without	-7337
▁Word	-7338
▁Daniel	-7339
▁demands	-7340
oids	-7341
▁entit	-7342
▁Portug	-7343
----	-7344
▁statements	-7345
▁Article	-7346
▁Nob	-7347
▁maintaining	-7348
ao	-7349
ruption	-7350
ricane	-7351
▁py	-7352
▁implemented	-7353
▁Spirit	-7354
▁desert	-7355
▁indigenous	-7356
▁mg	-7357
▁courts	-7358
▁difficulties	-7359
▁)	-7360
▁achievement	-7361
▁Spring	-7362
una	-7363
▁smart	-7364
▁covering	-7365
mentia	-7366
▁duty	-7367
aneously	-7368
▁Mah	-7369
▁satisf	-7370
▁Point	-7371
▁breath	-7372
▁addressed	-7373
▁boost	-7374
▁stronger	-7375
▁consciousness	-7376
icted	-7377
▁Upd	-7378
▁criminal	-7379
▁specified	-7380
▁chair	-7381
orig	-7382
▁respiratory	-7383
▁churches	-7384
▁favorite	-7385
▁steam	-7386
onym	-7387
▁Mond	-7388
▁executive	-7389
▁adolesc	-7390
▁identification	-7391
%.	-7392
▁Creek	-7393
EA	-7394
oding	-7395
▁buried	-7396
▁characteristic	-7397
▁Pur	-7398
▁agent	-7399
▁manifest	-7400
▁vel	-7401
uther	-7402
foot	-7403
▁ped	-7404
▁worst	-7405
▁Standard	-7406
▁farms	-7407
▁sched	-7408
▁desired	-7409
▁Capt	-7410
▁facing	-7411
▁trends	-7412
▁flows	-7413
▁informed	-7414
▁compound	-7415
▁Sunday	-7416
▁rect	-7417
▁forget	-7418
UR	-7419
▁Andrew	-7420
CN	-7421
rite	-7422
▁Bu	-7423
aneous	-7424
For	-7425
▁NO	-7426
▁Ott	-7427
▁assumed	-7428
mann	-7429
uten	-7430
▁reveal	-7431
▁believes	-7432
▁begun	-7433
▁remarkable	-7434
▁Arizona	-7435
▁officer	-7436
ackson	-7437
▁Him	-7438
▁Alaska	-7439
▁flour	-7440
ontal	-7441
▁driven	-7442
▁virtually	-7443
▁killing	-7444
▁contents	-7445
mers	-7446
ventions	-7447
TH	-7448
ghan	-7449
▁substit	-7450
▁proven	-7451
▁visited	-7452
▁engines	-7453
▁unw	-7454
▁draft	-7455
▁traditions	-7456
They	-7457
▁Cop	-7458
▁Mur	-7459
▁thanks	-7460
▁accommod	-7461
▁voltage	-7462
▁preserve	-7463
idity	-7464
And	-7465
▁laser	-7466
▁compens	-7467
▁enormous	-7468
▁initially	-7469
▁Oregon	-7470
▁commitment	-7471
▁correl	-7472
▁targets	-7473
▁rely	-7474
▁relax	-7475
▁reef	-7476
adow	-7477
▁overw	-7478
rem	-7479
▁Economic	-7480
▁reviewed	-7481
▁democracy	-7482
▁gravity	-7483
▁observe	-7484
va	-7485
▁Try	-7486
▁provin	-7487
operative	-7488
western	-7489
sue	-7490
▁Missouri	-7491
▁ton	-7492
▁Way	-7493
▁Blood	-7494
otyp	-7495
▁Vietnam	-7496
▁stopped	-7497
▁Volume	-7498
▁Following	-7499
▁translation	-7500
▁shore	-7501
just	-7502
▁doi	-7503
▁flower	-7504
uscript	-7505
▁AR	-7506
▁Kent	-7507
AB	-7508
▁bless	-7509
▁influenza	-7510
▁ecosystems	-7511
▁psychology	-7512
▁deer	-7513
▁moisture	-7514
▁smooth	-7515
reated	-7516
▁earthquake	-7517
▁bond	-7518
▁Head	-7519
yer	-7520
▁Road	-7521
▁Cho	-7522
▁heating	-7523
oca	-7524
atal	-7525
▁prosp	-7526
rint	-7527
rection	-7528
ivest	-7529
▁Field	-7530
▁chap	-7531
▁hardware	-7532
▁dealing	-7533
▁constantly	-7534
endar	-7535
▁continuing	-7536
▁quantum	-7537
hyd	-7538
▁representation	-7539
▁Jr	-7540
▁illegal	-7541
▁industries	-7542
oto	-7543
▁Dam	-7544
▁channel	-7545
▁Works	-7546
▁Dutch	-7547
▁disability	-7548
fts	-7549
itual	-7550
pd	-7551
▁alive	-7552
▁bears	-7553
▁lowest	-7554
▁pilot	-7555
istant	-7556
▁wheat	-7557
▁collections	-7558
dule	-7559
▁nitrogen	-7560
▁reporting	-7561
▁Search	-7562
▁beauty	-7563
▁exhibit	-7564
apor	-7565
olt	-7566
raining	-7567
▁Wilson	-7568
▁cooling	-7569
▁everyday	-7570
▁internet	-7571
▁Elizabeth	-7572
▁reaching	-7573
lines	-7574
ali	-7575
▁alph	-7576
▁scores	-7577
▁Ast	-7578
allow	-7579
EF	-7580
soft	-7581
▁logic	-7582
▁minerals	-7583
ieve	-7584
▁heritage	-7585
▁teens	-7586
▁athlet	-7587
▁fought	-7588
▁chemistry	-7589
▁creatures	-7590
▁Ca	-7591
▁reduces	-7592
▁hunting	-7593
▁measuring	-7594
▁Hom	-7595
▁grid	-7596
▁imagine	-7597
▁bleeding	-7598
▁Scotland	-7599
▁personnel	-7600
▁Crit	-7601
▁varieties	-7602
▁ven	-7603
But	-7604
▁province	-7605
being	-7606
▁worry	-7607
iability	-7608
▁forming	-7609
icate	-7610
▁eliminate	-7611
▁boat	-7612
▁intensity	-7613
ricted	-7614
▁Muslims	-7615
▁Clinical	-7616
▁flying	-7617
▁Korea	-7618
▁evident	-7619
▁Major	-7620
airy	-7621
▁pin	-7622
otype	-7623
ourse	-7624
▁consideration	-7625
▁coffee	-7626
▁teams	-7627
▁contribution	-7628
▁detection	-7629
▁batt	-7630
rical	-7631
▁variations	-7632
rooms	-7633
▁Albert	-7634
▁Marine	-7635
▁streams	-7636
▁Dev	-7637
roc	-7638
▁flash	-7639
▁HT	-7640
▁eru	-7641
▁Antar	-7642
▁Emer	-7643
▁feedback	-7644
▁atoms	-7645
▁Systems	-7646
▁thereby	-7647
▁existed	-7648
▁Ba	-7649
▁sus	-7650
aming	-7651
icular	-7652
▁advis	-7653
itory	-7654
hedule	-7655
endment	-7656
▁societies	-7657
ivestock	-7658
▁plot	-7659
▁temporary	-7660
▁Queen	-7661
▁Jackson	-7662
▁transmitted	-7663
________	-7664
▁exercises	-7665
▁Ice	-7666
▁clock	-7667
itarian	-7668
hent	-7669
archy	-7670
▁exhaust	-7671
▁faculty	-7672
▁magazine	-7673
▁reasonable	-7674
▁Bush	-7675
quir	-7676
▁Independ	-7677
aret	-7678
▁heaven	-7679
▁graduate	-7680
▁finger	-7681
▁Origin	-7682
neum	-7683
▁Century	-7684
amination	-7685
▁considering	-7686
▁Ess	-7687
▁plenty	-7688
▁Testament	-7689
▁ft	-7690
▁anywhere	-7691
▁references	-7692
▁analog	-7693
▁Jefferson	-7694
▁Abraham	-7695
▁CH	-7696
▁windows	-7697
plete	-7698
▁focuses	-7699
▁recover	-7700
she	-7701
ulpt	-7702
▁literary	-7703
▁biom	-7704
olving	-7705
▁Small	-7706
asant	-7707
▁analys	-7708
▁maybe	-7709
anger	-7710
ati	-7711
▁victory	-7712
▁Near	-7713
▁sales	-7714
▁excessive	-7715
▁Farm	-7716
ochem	-7717
umer	-7718
▁copies	-7719
▁cord	-7720
▁decor	-7721
▁Station	-7722
▁Species	-7723
▁Fish	-7724
▁spons	-7725
▁irrig	-7726
▁mammals	-7727
▁perception	-7728
▁Ell	-7729
ician	-7730
▁migration	-7731
▁faced	-7732
arn	-7733
▁fuels	-7734
▁Friday	-7735
▁Rab	-7736
▁thr	-7737
neys	-7738
▁shoot	-7739
▁MA	-7740
▁theme	-7741
▁minority	-7742
▁resid	-7743
coming	-7744
▁nom	-7745
▁roles	-7746
▁associate	-7747
IF	-7748
mm	-7749
▁conclus	-7750
teb	-7751
▁tables	-7752
▁diarr	-7753
▁adverse	-7754
▁Relig	-7755
▁tempor	-7756
▁Solar	-7757
▁abstract	-7758
▁interactive	-7759
▁tut	-7760
▁refused	-7761
▁Building	-7762
▁falling	-7763
▁TO	-7764
rh	-7765
▁musical	-7766
▁Ho	-7767
Gen	-7768
▁Media	-7769
▁threats	-7770
▁propag	-7771
▁Pu	-7772
▁inspired	-7773
▁suscept	-7774
.),	-7775
borne	-7776
▁uncom	-7777
▁biodiversity	-7778
▁cort	-7779
▁glac	-7780
▁divine	-7781
▁initiative	-7782
▁occupied	-7783
▁knowing	-7784
▁clar	-7785
nesota	-7786
ovascular	-7787
▁Yes	-7788
▁Ident	-7789
▁stones	-7790
urning	-7791
▁directions	-7792
▁Colon	-7793
▁wheel	-7794
▁Cost	-7795
How	-7796
forest	-7797
print	-7798
▁Unlike	-7799
▁interf	-7800
ested	-7801
▁incident	-7802
▁Code	-7803
▁Offic	-7804
▁sciences	-7805
HS	-7806
▁aimed	-7807
▁pros	-7808
▁Lead	-7809
kind	-7810
▁dys	-7811
▁intent	-7812
▁Kansas	-7813
▁extension	-7814
▁dropped	-7815
▁Did	-7816
▁prey	-7817
ceans	-7818
.:	-7819
oul	-7820
▁Chief	-7821
▁literacy	-7822
tw	-7823
ptic	-7824
▁girl	-7825
▁attribut	-7826
▁hence	-7827
▁Lim	-7828
▁armed	-7829
▁tob	-7830
TS	-7831
zo	-7832
▁Sus	-7833
books	-7834
▁Within	-7835
▁trigger	-7836
▁reward	-7837
▁disk	-7838
▁notion	-7839
ugg	-7840
▁evening	-7841
iop	-7842
▁convin	-7843
mic	-7844
bec	-7845
▁universities	-7846
▁mine	-7847
eting	-7848
▁Face	-7849
▁sacred	-7850
▁Cell	-7851
▁Physical	-7852
▁grounds	-7853
▁protective	-7854
▁improvements	-7855
▁beat	-7856
▁pursu	-7857
▁strengthen	-7858
▁default	-7859
▁Arts	-7860
▁colonial	-7861
▁cotton	-7862
▁priority	-7863
▁exploration	-7864
▁seiz	-7865
igue	-7866
DS	-7867
struct	-7868
▁Ram	-7869
▁occas	-7870
▁strike	-7871
▁magnitude	-7872
▁empty	-7873
▁uniform	-7874
▁neutral	-7875
▁gast	-7876
▁sitting	-7877
▁classical	-7878
▁vertical	-7879
▁distant	-7880
▁habitats	-7881
▁recip	-7882
▁violent	-7883
▁automatically	-7884
▁Minnesota	-7885
▁phrase	-7886
▁brand	-7887
▁interior	-7888
psy	-7889
▁cas	-7890
▁stood	-7891
▁structural	-7892
▁CP	-7893
▁sulf	-7894
▁geomet	-7895
▁Log	-7896
▁colonies	-7897
▁mig	-7898
▁transplant	-7899
▁Hit	-7900
▁Neg	-7901
▁Having	-7902
▁weakness	-7903
eries	-7904
ailing	-7905
▁clouds	-7906
▁census	-7907
outheast	-7908
▁dementia	-7909
essions	-7910
health	-7911
▁Person	-7912
▁incidence	-7913
eath	-7914
▁dies	-7915
▁herb	-7916
iture	-7917
▁Imp	-7918
▁Vit	-7919
▁wisdom	-7920
When	-7921
▁dism	-7922
▁simult	-7923
▁Angeles	-7924
▁saved	-7925
▁Contact	-7926
▁council	-7927
▁waiting	-7928
emeter	-7929
▁Wikipedia	-7930
hire	-7931
▁streets	-7932
▁essay	-7933
▁protecting	-7934
trans	-7935
▁Area	-7936
▁score	-7937
▁providers	-7938
amine	-7939
▁welfare	-7940
▁annually	-7941
▁promise	-7942
MP	-7943
▁identifying	-7944
▁advent	-7945
▁adapted	-7946
▁contributions	-7947
cin	-7948
real	-7949
▁FDA	-7950
▁explicit	-7951
ranean	-7952
atoes	-7953
▁tobacco	-7954
iations	-7955
▁spoken	-7956
▁dynamic	-7957
▁cooperation	-7958
▁marks	-7959
▁fix	-7960
▁om	-7961
▁royal	-7962
CA	-7963
asts	-7964
iger	-7965
▁Hard	-7966
▁healthcare	-7967
▁cooking	-7968
▁resc	-7969
▁devast	-7970
orters	-7971
▁recre	-7972
▁replic	-7973
▁corresponding	-7974
EG	-7975
▁button	-7976
claim	-7977
See	-7978
▁subsid	-7979
▁Monday	-7980
ustain	-7981
▁accord	-7982
▁Local	-7983
amps	-7984
▁dress	-7985
▁endangered	-7986
▁precip	-7987
oded	-7988
▁Pope	-7989
mat	-7990
▁nice	-7991
lected	-7992
irus	-7993
▁ecological	-7994
writ	-7995
▁designated	-7996
▁Ins	-7997
▁Parliament	-7998
▁wars	-7999
▁bigger	-8000
▁ritual	-8001
▁descend	-8002
arks	-8003
▁gathered	-8004
CH	-8005
▁fra	-8006
gence	-8007
▁hypothesis	-8008
▁ingredients	-8009
▁cough	-8010
▁diag	-8011
bes	-8012
▁manufacturers	-8013
▁spoke	-8014
Ex	-8015
▁fest	-8016
rive	-8017
▁behavioral	-8018
▁bag	-8019
▁returns	-8020
▁winds	-8021
▁vaccines	-8022
▁Reading	-8023
▁regardless	-8024
▁Santa	-8025
▁phosph	-8026
▁immigrants	-8027
▁Jacob	-8028
acent	-8029
ropol	-8030
section	-8031
▁objectives	-8032
hus	-8033
aven	-8034
irms	-8035
▁Peace	-8036
▁Mexican	-8037
▁assemb	-8038
▁spaces	-8039
▁hospitals	-8040
▁happening	-8041
▁quantity	-8042
▁coc	-8043
amins	-8044
cking	-8045
▁Philipp	-8046
▁customers	-8047
▁loved	-8048
▁guess	-8049
ologically	-8050
▁availability	-8051
▁Occ	-8052
▁Indones	-8053
▁surg	-8054
▁losses	-8055
▁quiet	-8056
▁audio	-8057
▁movie	-8058
▁rh	-8059
abulary	-8060
atively	-8061
rape	-8062
har	-8063
▁split	-8064
▁Blue	-8065
▁regulation	-8066
▁Hum	-8067
gon	-8068
ador	-8069
iological	-8070
▁cure	-8071
▁aster	-8072
thew	-8073
rat	-8074
▁determining	-8075
uation	-8076
▁classified	-8077
agnetic	-8078
▁pione	-8079
▁particle	-8080
▁Lewis	-8081
▁strain	-8082
▁ranging	-8083
▁doses	-8084
▁affecting	-8085
▁CA	-8086
▁grows	-8087
▁deeper	-8088
▁identical	-8089
▁fing	-8090
▁Ha	-8091
uled	-8092
▁accompanied	-8093
▁recru	-8094
lete	-8095
▁Neu	-8096
▁raising	-8097
▁Hur	-8098
▁degrad	-8099
power	-8100
aws	-8101
▁hall	-8102
▁posted	-8103
ila	-8104
isd	-8105
idal	-8106
▁occasionally	-8107
▁hyb	-8108
▁ID	-8109
▁pup	-8110
,'	-8111
▁Third	-8112
▁municip	-8113
copy	-8114
▁Tenn	-8115
▁households	-8116
▁Action	-8117
owa	-8118
▁aims	-8119
▁unem	-8120
▁Allah	-8121
’.	-8122
▁mouse	-8123
avior	-8124
▁tu	-8125
▁vs	-8126
▁Circ	-8127
▁Main	-8128
lan	-8129
iously	-8130
CP	-8131
▁lens	-8132
▁trem	-8133
riend	-8134
▁dietary	-8135
▁sport	-8136
▁preserved	-8137
▁Thanks	-8138
▁ampl	-8139
▁throat	-8140
▁kingdom	-8141
▁Set	-8142
mond	-8143
quis	-8144
after	-8145
▁lock	-8146
▁genome	-8147
▁attempted	-8148
ymes	-8149
▁cow	-8150
▁Diet	-8151
▁Standards	-8152
▁shapes	-8153
▁converted	-8154
▁tor	-8155
▁preferred	-8156
▁soph	-8157
▁strange	-8158
atial	-8159
▁sect	-8160
▁Kids	-8161
▁sup	-8162
▁Biology	-8163
▁acknowled	-8164
▁entitled	-8165
rox	-8166
▁pert	-8167
▁Afghan	-8168
▁prayer	-8169
ico	-8170
▁Williams	-8171
▁dominant	-8172
▁hidden	-8173
▁addresses	-8174
▁Governor	-8175
utation	-8176
▁metabol	-8177
▁dense	-8178
▁Assembly	-8179
▁dinosa	-8180
▁sunlight	-8181
unar	-8182
ubble	-8183
apped	-8184
▁manager	-8185
▁entering	-8186
bell	-8187
▁Text	-8188
velt	-8189
▁faces	-8190
▁readily	-8191
oked	-8192
▁Play	-8193
▁Image	-8194
da	-8195
▁hat	-8196
awn	-8197
▁Squ	-8198
▁Ministry	-8199
ga	-8200
▁summary	-8201
▁ash	-8202
▁embry	-8203
▁Much	-8204
On	-8205
▁emerging	-8206
ifice	-8207
▁soy	-8208
▁Town	-8209
▁gent	-8210
▁Based	-8211
▁broadcast	-8212
▁sons	-8213
sis	-8214
▁mixture	-8215
.’	-8216
asy	-8217
erts	-8218
▁optical	-8219
shaped	-8220
▁conversation	-8221
▁reserv	-8222
▁Census	-8223
▁inhabitants	-8224
▁fifth	-8225
▁driver	-8226
▁colony	-8227
▁Archives	-8228
▁educators	-8229
ohyd	-8230
bel	-8231
alo	-8232
▁wat	-8233
▁tong	-8234
▁mercury	-8235
▁bare	-8236
▁Invest	-8237
obile	-8238
▁overcome	-8239
▁Jim	-8240
iscons	-8241
▁involvement	-8242
▁uncle	-8243
▁programme	-8244
▁bees	-8245
▁parad	-8246
osevelt	-8247
▁overwhel	-8248
▁partly	-8249
omatic	-8250
▁mosquit	-8251
▁grains	-8252
▁displayed	-8253
▁origins	-8254
▁purchased	-8255
▁Tues	-8256
▁Tit	-8257
▁compos	-8258
▁anticip	-8259
▁sculpt	-8260
isconsin	-8261
▁dipl	-8262
ceedings	-8263
▁representing	-8264
▁Remember	-8265
▁unp	-8266
▁burned	-8267
▁candidate	-8268
▁scope	-8269
▁Incre	-8270
▁Model	-8271
▁humanity	-8272
▁calculated	-8273
Cl	-8274
▁tip	-8275
action	-8276
▁breed	-8277
unct	-8278
▁fatal	-8279
▁reign	-8280
▁privile	-8281
▁Mountain	-8282
▁Moses	-8283
▁club	-8284
▁Between	-8285
OW	-8286
▁realized	-8287
ropri	-8288
▁honey	-8289
▁correctly	-8290
▁Princi	-8291
▁boundaries	-8292
▁disrupt	-8293
▁representative	-8294
page	-8295
▁Jersey	-8296
▁Rus	-8297
▁Often	-8298
▁fires	-8299
▁Proble	-8300
box	-8301
ifer	-8302
▁suddenly	-8303
▁spr	-8304
itzer	-8305
▁Lat	-8306
di	-8307
▁reverse	-8308
▁unlikely	-8309
oga	-8310
▁lakes	-8311
▁weigh	-8312
▁beneath	-8313
▁ancestors	-8314
▁NY	-8315
▁seriously	-8316
▁dispos	-8317
▁lifetime	-8318
▁Whether	-8319
▁differ	-8320
▁lob	-8321
onents	-8322
▁fur	-8323
▁tort	-8324
▁manuscript	-8325
▁surprised	-8326
oons	-8327
ocity	-8328
▁Full	-8329
▁Move	-8330
▁Roosevelt	-8331
▁Healthwise	-8332
play	-8333
▁vig	-8334
urrent	-8335
scrib	-8336
▁comfortable	-8337
▁CT	-8338
▁Right	-8339
▁Centers	-8340
▁tick	-8341
▁Others	-8342
▁dance	-8343
lav	-8344
▁Marsh	-8345
▁registered	-8346
▁soils	-8347
▁Rail	-8348
▁extraord	-8349
▁mood	-8350
▁livestock	-8351
▁Bern	-8352
cho	-8353
▁Gre	-8354
ometer	-8355
door	-8356
▁bacterial	-8357
▁probability	-8358
OP	-8359
wan	-8360
ials	-8361
thur	-8362
▁sale	-8363
TM	-8364
rob	-8365
▁Given	-8366
▁spray	-8367
▁Louisiana	-8368
▁client	-8369
▁Symptoms	-8370
▁atmospheric	-8371
▁Stephen	-8372
▁cul	-8373
▁Hop	-8374
uits	-8375
▁fatty	-8376
▁mature	-8377
iva	-8378
▁Map	-8379
▁ho	-8380
atus	-8381
Sh	-8382
▁invasion	-8383
▁reflected	-8384
▁pollut	-8385
▁sister	-8386
profit	-8387
▁meals	-8388
issance	-8389
▁discussions	-8390
▁Short	-8391
▁trace	-8392
oli	-8393
▁Davis	-8394
▁comprom	-8395
nut	-8396
▁OS	-8397
nedy	-8398
sem	-8399
▁volunteers	-8400
▁Cr	-8401
onal	-8402
▁reproductive	-8403
▁varies	-8404
▁emerged	-8405
▁Sud	-8406
▁Week	-8407
▁Analysis	-8408
▁SP	-8409
▁consumed	-8410
angel	-8411
▁versus	-8412
▁Wisconsin	-8413
▁abandoned	-8414
▁Hispan	-8415
▁minister	-8416
▁acting	-8417
▁predicted	-8418
▁incom	-8419
▁proposal	-8420
▁lip	-8421
▁loose	-8422
!"	-8423
▁incent	-8424
▁thirty	-8425
▁Mess	-8426
▁advantages	-8427
▁Philosoph	-8428
▁Democratic	-8429
UL	-8430
aternal	-8431
▁sediment	-8432
▁meetings	-8433
▁Schools	-8434
▁Scientific	-8435
▁invention	-8436
▁wing	-8437
▁Hindu	-8438
▁meteor	-8439
cia	-8440
▁shed	-8441
▁replacement	-8442
rity	-8443
▁restaur	-8444
CI	-8445
▁Hem	-8446
▁telling	-8447
▁Es	-8448
▁watching	-8449
▁physically	-8450
▁illnesses	-8451
▁migr	-8452
▁Hu	-8453
▁hopes	-8454
ais	-8455
etically	-8456
▁Os	-8457
▁Temple	-8458
▁distinction	-8459
▁elections	-8460
▁ultimate	-8461
▁equation	-8462
▁prescribed	-8463
Ad	-8464
▁Tuesday	-8465
▁allergic	-8466
ashes	-8467
▁resemb	-8468
oys	-8469
▁Math	-8470
▁chose	-8471
▁conversion	-8472
aren	-8473
▁savings	-8474
▁restore	-8475
▁sodium	-8476
▁printing	-8477
olds	-8478
erally	-8479
▁Pap	-8480
agraph	-8481
▁haven	-8482
▁Bang	-8483
▁schedule	-8484
▁electrons	-8485
▁functioning	-8486
▁attitude	-8487
▁wonderful	-8488
▁Kennedy	-8489
▁Java	-8490
▁documented	-8491
rix	-8492
▁holy	-8493
aware	-8494
iblical	-8495
▁poetry	-8496
▁Music	-8497
▁pairs	-8498
also	-8499
▁embra	-8500
rene	-8501
▁requiring	-8502
vals	-8503
green	-8504
UT	-8505
▁dimin	-8506
▁Corpor	-8507
▁thermal	-8508
iterranean	-8509
▁dict	-8510
▁productivity	-8511
esh	-8512
rait	-8513
▁Available	-8514
enter	-8515
eping	-8516
▁aggressive	-8517
▁challenging	-8518
▁Index	-8519
▁pill	-8520
▁reveals	-8521
▁Jon	-8522
▁passes	-8523
ube	-8524
▁Jones	-8525
▁utility	-8526
▁convert	-8527
athan	-8528
aka	-8529
▁wings	-8530
ema	-8531
▁prime	-8532
▁physicians	-8533
▁dramatically	-8534
▁sizes	-8535
▁surveys	-8536
MA	-8537
▁scheme	-8538
olph	-8539
▁promoting	-8540
▁PhD	-8541
▁flexible	-8542
▁investigate	-8543
▁pel	-8544
▁plas	-8545
rub	-8546
▁Photo	-8547
▁losing	-8548
lock	-8549
▁vot	-8550
▁spinal	-8551
▁stability	-8552
▁Fer	-8553
aping	-8554
▁SS	-8555
▁deeply	-8556
▁innovative	-8557
▁sensitivity	-8558
anol	-8559
▁symbols	-8560
awa	-8561
▁Isa	-8562
▁philos	-8563
rose	-8564
▁caps	-8565
ocated	-8566
▁administrative	-8567
▁ruled	-8568
▁literally	-8569
berry	-8570
▁grades	-8571
▁elementary	-8572
▁Corps	-8573
▁Thurs	-8574
▁capabilities	-8575
▁sees	-8576
mental	-8577
▁empire	-8578
▁celebrated	-8579
▁Physics	-8580
sor	-8581
▁marg	-8582
▁Help	-8583
▁Poly	-8584
▁exciting	-8585
▁lighting	-8586
▁Hitler	-8587
▁revers	-8588
▁merch	-8589
▁Working	-8590
▁forecast	-8591
▁span	-8592
run	-8593
▁affairs	-8594
olves	-8595
▁interventions	-8596
▁pit	-8597
▁pace	-8598
▁vom	-8599
made	-8600
▁Unt	-8601
▁Wednes	-8602
▁logical	-8603
▁Ren	-8604
▁NOT	-8605
atories	-8606
▁villages	-8607
▁Assessment	-8608
▁rhyth	-8609
▁requirement	-8610
▁mile	-8611
▁myself	-8612
▁operated	-8613
iative	-8614
▁cuts	-8615
▁treaty	-8616
▁Turk	-8617
▁processed	-8618
enh	-8619
▁Charl	-8620
▁Business	-8621
▁reaches	-8622
▁distinguish	-8623
▁unn	-8624
▁ster	-8625
▁Order	-8626
▁IU	-8627
▁integration	-8628
ogenic	-8629
▁couldn	-8630
▁libraries	-8631
▁minds	-8632
▁judgment	-8633
inent	-8634
oline	-8635
▁legit	-8636
sun	-8637
type	-8638
▁Greece	-8639
▁anthrop	-8640
▁cheap	-8641
▁penet	-8642
▁songs	-8643
▁permitted	-8644
▁Marx	-8645
▁wouldn	-8646
▁scholar	-8647
▁linear	-8648
▁kilometers	-8649
▁gods	-8650
erness	-8651
▁underground	-8652
▁till	-8653
▁campus	-8654
quarters	-8655
▁deficiency	-8656
▁develops	-8657
vi	-8658
▁amazing	-8659
▁manual	-8660
ighth	-8661
▁Clin	-8662
▁peer	-8663
▁drinks	-8664
▁Evolution	-8665
▁perceived	-8666
▁technological	-8667
▁cash	-8668
▁Son	-8669
▁Carl	-8670
▁restricted	-8671
▁smell	-8672
▁twelve	-8673
▁varied	-8674
▁outbreak	-8675
▁horizontal	-8676
▁Nic	-8677
▁missions	-8678
▁Death	-8679
▁conce	-8680
▁Samuel	-8681
▁Franklin	-8682
▁tends	-8683
▁relating	-8684
▁controlling	-8685
iox	-8686
▁pale	-8687
LA	-8688
▁parameters	-8689
lights	-8690
▁membrane	-8691
▁quantities	-8692
▁limitations	-8693
▁Bell	-8694
▁wise	-8695
▁Univers	-8696
▁incred	-8697
▁decay	-8698
▁performing	-8699
▁emotions	-8700
▁classic	-8701
▁assembly	-8702
▁Trade	-8703
copic	-8704
▁Observ	-8705
▁Linux	-8706
▁Being	-8707
inates	-8708
▁permit	-8709
▁computing	-8710
▁Additionally	-8711
▁asc	-8712
▁broke	-8713
zyme	-8714
▁transferred	-8715
▁Rest	-8716
▁Nutrition	-8717
zes	-8718
▁robot	-8719
▁Adam	-8720
▁poem	-8721
▁Adams	-8722
▁saving	-8723
▁shorter	-8724
▁sophistic	-8725
No	-8726
▁stake	-8727
▁harder	-8728
▁oceans	-8729
text	-8730
▁Put	-8731
▁]	-8732
▁oste	-8733
▁diarrhea	-8734
▁abilities	-8735
.]	-8736
ieth	-8737
▁deposits	-8738
▁exhibition	-8739
▁profound	-8740
bury	-8741
icts	-8742
▁remed	-8743
▁NE	-8744
▁attach	-8745
ker	-8746
itic	-8747
▁Wales	-8748
▁Connect	-8749
▁survived	-8750
▁coral	-8751
▁restrictions	-8752
▁Dyn	-8753
▁landing	-8754
▁precisely	-8755
▁shaped	-8756
▁Consider	-8757
▁Mediterranean	-8758
▁torn	-8759
▁specialized	-8760
▁offices	-8761
▁package	-8762
’,	-8763
▁contaminated	-8764
▁Ty	-8765
▁Fil	-8766
▁profile	-8767
▁withdraw	-8768
▁erect	-8769
▁keeps	-8770
▁subt	-8771
ifier	-8772
▁Microsoft	-8773
▁translated	-8774
▁metals	-8775
RS	-8776
▁liberal	-8777
▁painful	-8778
▁deleg	-8779
▁Walk	-8780
▁milit	-8781
▁storms	-8782
ineteenth	-8783
▁prisoners	-8784
▁PDF	-8785
▁bat	-8786
▁assistant	-8787
▁?	-8788
ctors	-8789
▁MP	-8790
▁Luther	-8791
▁fo	-8792
▁regime	-8793
rons	-8794
▁jurisd	-8795
▁Protest	-8796
▁devoted	-8797
▁rainfall	-8798
antine	-8799
▁holiday	-8800
regular	-8801
sex	-8802
▁theoretical	-8803
imen	-8804
attered	-8805
eller	-8806
▁Talk	-8807
▁suicide	-8808
ethe	-8809
▁coat	-8810
▁fatigue	-8811
▁Orthodox	-8812
▁cardiovascular	-8813
ospel	-8814
▁Dougl	-8815
▁introduce	-8816
ideo	-8817
omon	-8818
teenth	-8819
▁profit	-8820
▁neurons	-8821
▁discipline	-8822
child	-8823
imp	-8824
▁Wednesday	-8825
▁personality	-8826
%,	-8827
▁Mot	-8828
▁Egyptian	-8829
▁labour	-8830
▁enthus	-8831
rue	-8832
▁organism	-8833
▁advances	-8834
▁officially	-8835
illance	-8836
▁planting	-8837
rency	-8838
▁Cond	-8839
▁alarm	-8840
▁Product	-8841
▁Thursday	-8842
▁approval	-8843
▁provision	-8844
▁vag	-8845
▁thyroid	-8846
▁publications	-8847
▁gray	-8848
duction	-8849
ceeding	-8850
▁authent	-8851
▁counties	-8852
▁appeal	-8853
▁Balt	-8854
▁suit	-8855
rapeut	-8856
De	-8857
▁ranges	-8858
▁partnership	-8859
▁lecture	-8860
▁Fac	-8861
▁camps	-8862
▁Berlin	-8863
▁planted	-8864
▁UV	-8865
irable	-8866
pert	-8867
▁handling	-8868
▁Greg	-8869
▁differently	-8870
▁describing	-8871
▁safely	-8872
▁inch	-8873
▁enforcement	-8874
iph	-8875
▁pneum	-8876
▁attitudes	-8877
▁Nevertheless	-8878
▁folk	-8879
opes	-8880
▁doctrine	-8881
agle	-8882
ronaut	-8883
▁phenomena	-8884
▁developments	-8885
▁Dun	-8886
▁nodes	-8887
▁Turn	-8888
▁civilization	-8889
▁tact	-8890
▁representatives	-8891
▁fraction	-8892
▁Hig	-8893
ocket	-8894
gments	-8895
▁Enter	-8896
▁Sem	-8897
▁insight	-8898
▁recording	-8899
about	-8900
▁module	-8901
OD	-8902
list	-8903
acles	-8904
▁everywhere	-8905
▁calendar	-8906
▁Han	-8907
▁Rather	-8908
ega	-8909
▁adolescents	-8910
▁Kn	-8911
roud	-8912
orer	-8913
▁attended	-8914
▁sad	-8915
▁styles	-8916
▁tag	-8917
non	-8918
▁puzz	-8919
▁breaking	-8920
ught	-8921
▁complexity	-8922
▁Garden	-8923
▁panc	-8924
▁Mother	-8925
▁provisions	-8926
▁Nation	-8927
▁tab	-8928
▁varying	-8929
ATION	-8930
▁adopt	-8931
▁Number	-8932
▁paintings	-8933
▁pediatric	-8934
▁prevalence	-8935
GE	-8936
▁Ray	-8937
▁clothes	-8938
▁Statistics	-8939
▁craft	-8940
▁barrier	-8941
elly	-8942
▁nort	-8943
▁Place	-8944
▁worker	-8945
▁sending	-8946
▁Exp	-8947
▁continent	-8948
▁Hay	-8949
▁abundant	-8950
▁hier	-8951
▁wider	-8952
feeding	-8953
▁constra	-8954
▁analyzed	-8955
▁encl	-8956
acon	-8957
▁vice	-8958
▁legend	-8959
holders	-8960
▁striking	-8961
▁Matthew	-8962
▁productive	-8963
cut	-8964
▁Watch	-8965
▁neighb	-8966
Sp	-8967
cal	-8968
▁innovation	-8969
▁statistical	-8970
▁Satur	-8971
▁valley	-8972
▁Iowa	-8973
▁incorporated	-8974
▁Clark	-8975
▁Print	-8976
▁consisting	-8977
icing	-8978
▁Script	-8979
▁gardens	-8980
▁distinguished	-8981
▁attributed	-8982
ocolate	-8983
ulates	-8984
▁surprise	-8985
▁equality	-8986
anium	-8987
leton	-8988
▁collapse	-8989
▁elderly	-8990
▁extinction	-8991
▁fan	-8992
▁Germans	-8993
azon	-8994
▁Which	-8995
▁struck	-8996
▁swelling	-8997
ori	-8998
▁Sep	-8999
▁abol	-9000
▁batteries	-9001
fast	-9002
iatric	-9003
▁rooms	-9004
▁videos	-9005
▁intention	-9006
▁Prim	-9007
▁channels	-9008
▁ears	-9009
▁Support	-9010
▁drivers	-9011
worth	-9012
▁Teachers	-9013
▁suggesting	-9014
▁Var	-9015
▁Impro	-9016
▁chances	-9017
▁establishing	-9018
▁Prom	-9019
▁spots	-9020
▁bull	-9021
▁curve	-9022
▁punishment	-9023
▁Individual	-9024
▁circulation	-9025
▁dil	-9026
▁gif	-9027
GS	-9028
Os	-9029
emetery	-9030
▁surgical	-9031
▁Computer	-9032
▁Bal	-9033
▁dairy	-9034
heastern	-9035
▁prosper	-9036
▁restoration	-9037
▁bron	-9038
▁ease	-9039
▁complement	-9040
▁sovere	-9041
ications	-9042
▁tendency	-9043
▁consequence	-9044
velength	-9045
▁Defense	-9046
▁Republican	-9047
▁ADHD	-9048
▁Similarly	-9049
through	-9050
▁bought	-9051
▁producers	-9052
▁Introduction	-9053
▁disturb	-9054
▁instances	-9055
chnology	-9056
▁confusion	-9057
gregation	-9058
izers	-9059
▁attacked	-9060
▁expedition	-9061
▁developmental	-9062
▁molecule	-9063
enda	-9064
▁malaria	-9065
▁Fa	-9066
▁Nazi	-9067
▁exclud	-9068
()	-9069
▁gift	-9070
inth	-9071
▁cleaning	-9072
ogs	-9073
▁facilitate	-9074
▁enables	-9075
▁governor	-9076
▁accomplish	-9077
ashed	-9078
▁ethical	-9079
iosity	-9080
▁orange	-9081
▁Digital	-9082
▁Tay	-9083
oves	-9084
▁impair	-9085
▁murder	-9086
▁surviv	-9087
▁Gh	-9088
▁RNA	-9089
▁auto	-9090
▁vocabulary	-9091
▁removing	-9092
ipher	-9093
▁aging	-9094
▁visits	-9095
▁Commons	-9096
▁economics	-9097
▁occupation	-9098
▁contrad	-9099
▁confident	-9100
▁wash	-9101
▁duration	-9102
uclear	-9103
▁sensor	-9104
▁mutations	-9105
▁prox	-9106
▁Ten	-9107
▁arise	-9108
▁Poland	-9109
▁consent	-9110
▁galaxies	-9111
Ed	-9112
▁Facebook	-9113
sters	-9114
▁Brain	-9115
▁healing	-9116
▁sensors	-9117
ois	-9118
▁debris	-9119
▁Club	-9120
▁suggestions	-9121
duate	-9122
▁Tradition	-9123
Se	-9124
original	-9125
▁Nether	-9126
▁noticed	-9127
▁surprising	-9128
▁Confederate	-9129
pdf	-9130
insula	-9131
▁recycling	-9132
▁lingu	-9133
▁assert	-9134
▁writings	-9135
▁Large	-9136
▁consume	-9137
▁Aud	-9138
▁partial	-9139
▁succeeded	-9140
▁contamination	-9141
author	-9142
▁Ah	-9143
▁Altern	-9144
▁actively	-9145
▁chicken	-9146
TER	-9147
burgh	-9148
words	-9149
PV	-9150
▁applying	-9151
pany	-9152
▁trail	-9153
▁inev	-9154
▁Ancient	-9155
▁hal	-9156
world	-9157
▁focusing	-9158
▁analyze	-9159
ersion	-9160
ployed	-9161
▁Links	-9162
▁erosion	-9163
▁Collection	-9164
▁pries	-9165
▁herself	-9166
▁arthritis	-9167
▁dying	-9168
▁dating	-9169
▁register	-9170
▁rend	-9171
▁conclusions	-9172
▁beet	-9173
▁viral	-9174
▁Materials	-9175
▁velocity	-9176
▁perfectly	-9177
▁contributing	-9178
▁catalog	-9179
▁dimensions	-9180
▁GM	-9181
▁Beg	-9182
▁surrounded	-9183
NS	-9184
▁joints	-9185
▁elevated	-9186
▁opinions	-9187
▁Lind	-9188
▁tap	-9189
▁puts	-9190
▁Patients	-9191
▁influences	-9192
▁Exec	-9193
▁priest	-9194
▁Pediatric	-9195
▁burden	-9196
▁PA	-9197
So	-9198
▁arrival	-9199
▁Buddh	-9200
ulsion	-9201
specific	-9202
▁Accessed	-9203
▁Marc	-9204
▁persu	-9205
▁Clean	-9206
▁obser	-9207
▁dental	-9208
▁adjacent	-9209
▁specimens	-9210
▁acceptable	-9211
Our	-9212
▁pesticides	-9213
▁verb	-9214
▁cerv	-9215
▁edited	-9216
▁Ni	-9217
▁inherent	-9218
▁Guard	-9219
▁separation	-9220
▁democratic	-9221
▁settlers	-9222
▁clay	-9223
▁indirect	-9224
▁encounter	-9225
▁pine	-9226
zymes	-9227
▁myster	-9228
▁vitamins	-9229
▁salmon	-9230
▁Jack	-9231
▁rays	-9232
▁Carib	-9233
▁Leon	-9234
▁excav	-9235
▁arranged	-9236
▁severity	-9237
▁rib	-9238
rowth	-9239
▁hung	-9240
rology	-9241
▁Francis	-9242
▁bladder	-9243
▁ion	-9244
▁Hot	-9245
▁Econom	-9246
▁managing	-9247
▁telescope	-9248
▁CE	-9249
▁Ent	-9250
▁summar	-9251
lah	-9252
▁Miller	-9253
▁brothers	-9254
agen	-9255
▁hormones	-9256
rible	-9257
▁wearing	-9258
▁Arm	-9259
▁historians	-9260
To	-9261
▁FA	-9262
▁NG	-9263
abama	-9264
▁confront	-9265
▁discharge	-9266
▁Edition	-9267
▁displays	-9268
omal	-9269
▁eleph	-9270
▁intermedi	-9271
▁boundary	-9272
▁applies	-9273
▁accurately	-9274
▁defects	-9275
▁publ	-9276
isons	-9277
ushing	-9278
▁Diabetes	-9279
iner	-9280
omed	-9281
▁Site	-9282
▁reserves	-9283
▁subsequently	-9284
iders	-9285
▁cave	-9286
▁diagnostic	-9287
▁expanding	-9288
essee	-9289
▁totally	-9290
rological	-9291
▁Five	-9292
▁invented	-9293
▁prevented	-9294
▁satisfact	-9295
▁beam	-9296
▁Real	-9297
las	-9298
▁blacks	-9299
▁Certain	-9300
▁ownership	-9301
RL	-9302
eric	-9303
▁suspected	-9304
▁listening	-9305
estone	-9306
▁expectations	-9307
▁Object	-9308
▁receives	-9309
▁controversial	-9310
▁Sweden	-9311
▁friendly	-9312
▁evaluated	-9313
sub	-9314
▁Ford	-9315
amic	-9316
▁zones	-9317
▁brains	-9318
▁Additional	-9319
▁Diego	-9320
▁declined	-9321
▁resistant	-9322
▁mail	-9323
▁Living	-9324
▁argues	-9325
▁panels	-9326
DL	-9327
Ind	-9328
osphere	-9329
▁Process	-9330
▁volumes	-9331
▁prostate	-9332
▁contrary	-9333
▁Sher	-9334
imm	-9335
▁ul	-9336
oning	-9337
▁Trust	-9338
▁tongue	-9339
▁relatives	-9340
▁Mrs	-9341
▁embed	-9342
▁Ont	-9343
lastname	-9344
urable	-9345
▁aside	-9346
uan	-9347
▁convey	-9348
▁hardly	-9349
▁Tar	-9350
ocaust	-9351
burn	-9352
urse	-9353
pson	-9354
▁Sav	-9355
▁Pain	-9356
isphere	-9357
aya	-9358
▁narrative	-9359
▁borrow	-9360
▁Culture	-9361
▁Represent	-9362
▁beans	-9363
▁painted	-9364
ques	-9365
▁perpet	-9366
▁absolutely	-9367
▁cig	-9368
▁barriers	-9369
▁juice	-9370
▁carries	-9371
▁nutritional	-9372
▁Hon	-9373
▁telephone	-9374
▁sheep	-9375
Re	-9376
▁Method	-9377
▁weaken	-9378
▁targeted	-9379
▁Mountains	-9380
IST	-9381
ateral	-9382
▁disag	-9383
▁Published	-9384
▁carbohyd	-9385
▁rejected	-9386
▁irrigation	-9387
PL	-9388
▁blank	-9389
▁Cook	-9390
▁Level	-9391
▁breaks	-9392
▁websites	-9393
▁entertain	-9394
keley	-9395
ools	-9396
▁ending	-9397
▁citizen	-9398
▁qualities	-9399
▁returning	-9400
▁scales	-9401
▁accomplished	-9402
▁Reserve	-9403
mentation	-9404
▁Hyd	-9405
engers	-9406
▁Emperor	-9407
▁Examples	-9408
▁Cape	-9409
▁Alabama	-9410
▁constitutional	-9411
▁Ele	-9412
▁Ide	-9413
eras	-9414
redit	-9415
▁atomic	-9416
▁infectious	-9417
▁extraordinary	-9418
▁scr	-9419
▁Student	-9420
▁tone	-9421
▁Ash	-9422
▁Animal	-9423
▁Netherlands	-9424
▁Theory	-9425
imensional	-9426
tery	-9427
▁paying	-9428
▁awarded	-9429
▁collective	-9430
▁charges	-9431
▁attributes	-9432
▁classification	-9433
urd	-9434
▁tribe	-9435
▁factory	-9436
▁nutrient	-9437
▁Qur	-9438
▁fats	-9439
That	-9440
inch	-9441
terior	-9442
iversary	-9443
▁minimal	-9444
rium	-9445
amil	-9446
▁Tennessee	-9447
▁preparing	-9448
▁sustainability	-9449
▁cable	-9450
▁CS	-9451
▁ow	-9452
▁genus	-9453
▁Tan	-9454
▁Rog	-9455
▁Teaching	-9456
All	-9457
▁joy	-9458
▁shr	-9459
▁candidates	-9460
idae	-9461
▁seasonal	-9462
otan	-9463
▁Barb	-9464
▁directory	-9465
▁municipal	-9466
▁plates	-9467
QL	-9468
▁altered	-9469
uh	-9470
▁cycles	-9471
▁practition	-9472
aug	-9473
icals	-9474
▁overview	-9475
▁container	-9476
▁Duke	-9477
ylon	-9478
▁medieval	-9479
▁frust	-9480
orus	-9481
▁Ult	-9482
acle	-9483
▁invasive	-9484
▁traits	-9485
▁Parents	-9486
quiry	-9487
eld	-9488
▁vegetable	-9489
▁bits	-9490
▁stabil	-9491
▁competitive	-9492
▁Interest	-9493
▁IT	-9494
▁Six	-9495
▁minimize	-9496
▁Mach	-9497
▁ozone	-9498
▁compost	-9499
▁submitted	-9500
▁HTML	-9501
ructive	-9502
▁engineer	-9503
▁Treaty	-9504
▁freely	-9505
▁Sac	-9506
▁Grant	-9507
▁von	-9508
icking	-9509
▁partially	-9510
▁artif	-9511
▁Should	-9512
▁duties	-9513
▁fles	-9514
▁paragraph	-9515
▁globe	-9516
▁adaptation	-9517
nals	-9518
▁rated	-9519
▁cyl	-9520
▁League	-9521
▁newspapers	-9522
▁immigration	-9523
wa	-9524
▁analyses	-9525
ysical	-9526
▁wavelength	-9527
itches	-9528
▁tape	-9529
▁shelter	-9530
▁scenario	-9531
▁criticism	-9532
umatic	-9533
▁Story	-9534
▁Win	-9535
▁gest	-9536
▁codes	-9537
Med	-9538
▁Boy	-9539
▁Pas	-9540
▁simultaneously	-9541
III	-9542
ket	-9543
▁dent	-9544
ictions	-9545
▁parks	-9546
▁enjoyed	-9547
commun	-9548
▁hepat	-9549
▁Master	-9550
▁feather	-9551
▁Meanwhile	-9552
▁prescription	-9553
▁films	-9554
▁Bow	-9555
▁defeat	-9556
▁strategic	-9557
iro	-9558
▁cong	-9559
▁meter	-9560
▁fiction	-9561
▁regulatory	-9562
▁Rand	-9563
▁Utah	-9564
idge	-9565
▁Recent	-9566
▁binding	-9567
▁Hence	-9568
▁relate	-9569
struction	-9570
▁Resource	-9571
▁inequ	-9572
▁pH	-9573
raine	-9574
▁Mathemat	-9575
▁Ib	-9576
adequ	-9577
peare	-9578
▁trading	-9579
rared	-9580
▁Jane	-9581
▁definitions	-9582
▁diver	-9583
▁mi	-9584
oler	-9585
▁Guid	-9586
PDF	-9587
▁Until	-9588
▁wooden	-9589
▁abundance	-9590
▁Due	-9591
▁pou	-9592
▁sophisticated	-9593
spring	-9594
▁Turkey	-9595
▁specialist	-9596
ivities	-9597
▁fluids	-9598
▁expertise	-9599
▁predators	-9600
▁Risk	-9601
▁conflicts	-9602
dep	-9603
▁Sn	-9604
▁Hung	-9605
stic	-9606
▁spreading	-9607
▁gate	-9608
▁absorb	-9609
▁insert	-9610
▁overweight	-9611
▁licensed	-9612
▁marketing	-9613
▁elig	-9614
▁crown	-9615
▁transmit	-9616
▁Romans	-9617
ders	-9618
▁crimes	-9619
▁admitted	-9620
▁grace	-9621
▁Arabic	-9622
upiter	-9623
arians	-9624
▁absorbed	-9625
azz	-9626
▁segment	-9627
▁inflation	-9628
▁Indiana	-9629
law	-9630
▁visiting	-9631
bage	-9632
▁Norm	-9633
At	-9634
▁rac	-9635
▁commod	-9636
▁rod	-9637
▁Historic	-9638
▁axis	-9639
▁shallow	-9640
uv	-9641
▁export	-9642
▁preservation	-9643
▁spir	-9644
▁elabor	-9645
▁configuration	-9646
▁possibilities	-9647
▁Think	-9648
stration	-9649
▁passion	-9650
▁encouraging	-9651
▁render	-9652
ogram	-9653
isting	-9654
thood	-9655
▁beach	-9656
▁fallen	-9657
▁Argent	-9658
yr	-9659
igate	-9660
▁galaxy	-9661
▁infinite	-9662
▁concentrated	-9663
▁stere	-9664
▁historian	-9665
▁Sab	-9666
elect	-9667
▁mira	-9668
vy	-9669
▁USDA	-9670
▁reflects	-9671
▁Num	-9672
▁irre	-9673
▁therm	-9674
akespeare	-9675
▁fingers	-9676
▁cluster	-9677
▁Has	-9678
nings	-9679
aver	-9680
▁participating	-9681
▁Fig	-9682
rels	-9683
▁injured	-9684
▁sessions	-9685
▁Mes	-9686
▁satellites	-9687
▁CF	-9688
▁strains	-9689
▁susceptible	-9690
▁WW	-9691
fare	-9692
▁emotion	-9693
▁Publishing	-9694
▁Flu	-9695
▁onset	-9696
osex	-9697
▁Astronom	-9698
ouses	-9699
▁Arist	-9700
▁enzyme	-9701
▁sheets	-9702
▁installation	-9703
▁initiatives	-9704
rec	-9705
grade	-9706
▁semi	-9707
▁orientation	-9708
dominal	-9709
otten	-9710
▁irregular	-9711
ogens	-9712
▁Applic	-9713
phal	-9714
inian	-9715
▁Ark	-9716
ioxid	-9717
▁corporate	-9718
▁Bah	-9719
▁divide	-9720
ranch	-9721
▁Marg	-9722
▁Mission	-9723
▁Psychology	-9724
▁presum	-9725
▁Saturday	-9726
alks	-9727
aund	-9728
▁Jean	-9729
▁Afghanistan	-9730
▁Practice	-9731
▁Caribbean	-9732
hard	-9733
▁dominated	-9734
▁Jun	-9735
▁genetically	-9736
▁favour	-9737
▁Diseases	-9738
▁managers	-9739
owered	-9740
▁Vitamin	-9741
▁allergies	-9742
▁PL	-9743
▁Lie	-9744
▁hurt	-9745
▁therapies	-9746
▁rough	-9747
▁Case	-9748
▁amino	-9749
▁collecting	-9750
rank	-9751
▁retain	-9752
anted	-9753
erving	-9754
▁Integ	-9755
";	-9756
))	-9757
▁eaten	-9758
▁Path	-9759
▁fifty	-9760
▁Transport	-9761
.||	-9762
role	-9763
forced	-9764
gged	-9765
▁sperm	-9766
▁Bh	-9767
▁Pa	-9768
▁Fri	-9769
▁wetlands	-9770
▁tack	-9771
▁needle	-9772
▁feels	-9773
▁Indonesia	-9774
▁Tib	-9775
▁portions	-9776
ela	-9777
▁magnet	-9778
▁Questions	-9779
▁whenever	-9780
▁forb	-9781
▁trauma	-9782
▁antibodies	-9783
▁perf	-9784
▁alternatives	-9785
▁accompany	-9786
▁traveling	-9787
▁intra	-9788
▁attractive	-9789
▁deliber	-9790
entieth	-9791
▁Kentucky	-9792
▁Gro	-9793
▁assets	-9794
▁Sustain	-9795
▁WHO	-9796
▁doors	-9797
▁Posted	-9798
▁gran	-9799
iley	-9800
▁commands	-9801
▁Staff	-9802
ropolitan	-9803
ishers	-9804
▁Future	-9805
efficient	-9806
▁Maine	-9807
thal	-9808
▁solving	-9809
▁Affairs	-9810
ceptions	-9811
expected	-9812
fold	-9813
abling	-9814
▁meaningful	-9815
oa	-9816
▁Dor	-9817
▁posts	-9818
▁bullying	-9819
▁searching	-9820
ammad	-9821
▁prol	-9822
mented	-9823
▁vomiting	-9824
▁indicating	-9825
lem	-9826
▁celebrate	-9827
▁Lawrence	-9828
▁fate	-9829
▁basically	-9830
▁hybrid	-9831
▁arrive	-9832
▁chemotherapy	-9833
advant	-9834
▁reputation	-9835
▁pets	-9836
▁spatial	-9837
iano	-9838
▁edges	-9839
▁throw	-9840
▁Chile	-9841
▁dish	-9842
▁license	-9843
▁recall	-9844
▁qualified	-9845
iac	-9846
▁obese	-9847
▁dollar	-9848
▁broader	-9849
▁pleasure	-9850
▁canal	-9851
▁artery	-9852
▁anger	-9853
▁seal	-9854
ctu	-9855
uty	-9856
▁Currently	-9857
▁sew	-9858
▁crust	-9859
Pro	-9860
▁Jupiter	-9861
▁assault	-9862
▁sentences	-9863
▁Anne	-9864
▁adoption	-9865
▁educated	-9866
iler	-9867
▁currency	-9868
olly	-9869
▁Opp	-9870
rapeutic	-9871
▁balanced	-9872
▁frog	-9873
▁Daily	-9874
▁disappear	-9875
esy	-9876
▁epidemic	-9877
eling	-9878
▁crack	-9879
restrial	-9880
▁suspect	-9881
▁unemployment	-9882
▁founder	-9883
▁Bor	-9884
▁morph	-9885
▁tremend	-9886
istically	-9887
▁exclusively	-9888
▁sail	-9889
▁condem	-9890
My	-9891
▁reasoning	-9892
▁radioactive	-9893
▁width	-9894
▁phones	-9895
▁calculate	-9896
▁Hunt	-9897
▁administered	-9898
lahoma	-9899
▁fault	-9900
▁Holocaust	-9901
▁hill	-9902
▁Freder	-9903
▁verse	-9904
▁convention	-9905
▁definitely	-9906
oving	-9907
▁enzymes	-9908
▁Bob	-9909
▁mirror	-9910
▁prolong	-9911
vol	-9912
▁liberty	-9913
▁dow	-9914
▁rocket	-9915
▁Shakespeare	-9916
▁Pear	-9917
▁enhanced	-9918
▁entrance	-9919
▁severely	-9920
aze	-9921
▁skull	-9922
▁railroad	-9923
▁nineteenth	-9924
▁somewhere	-9925
▁pap	-9926
▁illustrated	-9927
These	-9928
▁whales	-9929
▁addressing	-9930
▁Li	-9931
▁masses	-9932
▁diets	-9933
▁enact	-9934
▁Discuss	-9935
▁Event	-9936
▁combine	-9937
▁tension	-9938
eared	-9939
▁traveled	-9940
▁Radio	-9941
BI	-9942
▁Lar	-9943
asses	-9944
▁distribut	-9945
▁systematic	-9946
acre	-9947
▁anten	-9948
▁mystery	-9949
onald	-9950
▁pharmac	-9951
▁regulate	-9952
nia	-9953
▁anat	-9954
▁Series	-9955
▁Understanding	-9956
▁Cold	-9957
▁tubes	-9958
▁sampling	-9959
▁experiencing	-9960
▁mart	-9961
▁distances	-9962
▁sequences	-9963
actic	-9964
▁interfere	-9965
▁Chap	-9966
▁Earl	-9967
▁Hawaii	-9968
▁chamber	-9969
▁Years	-9970
▁volcanic	-9971
keys	-9972
▁Gil	-9973
▁colored	-9974
▁selling	-9975
▁Paper	-9976
▁loop	-9977
▁reservoir	-9978
ridges	-9979
▁athletes	-9980
▁surre	-9981
TA	-9982
plex	-9983
▁Bru	-9984
iolet	-9985
istent	-9986
neg	-9987
▁ES	-9988
▁Educational	-9989
!!	-9990
▁residential	-9991
▁Trib	-9992
jo	-9993
ibli	-9994
found	-9995
▁pond	-9996
▁patri	-9997
▁Arthur	-9998
▁enemies	-9999
▁featured	-10000
ceeds	-10001
▁departments	-10002
▁Training	-10003
this	-10004
▁hazards	-10005
▁Berkeley	-10006
▁sacrifice	-10007
arts	-10008
▁buying	-10009
jud	-10010
▁Democr	-10011
▁predomin	-10012
▁tied	-10013
▁estate	-10014
▁happiness	-10015
MD	-10016
▁whites	-10017
▁Editor	-10018
▁Taylor	-10019
asures	-10020
▁Population	-10021
plate	-10022
▁algae	-10023
economic	-10024
even	-10025
unning	-10026
▁browser	-10027
▁Ak	-10028
▁kg	-10029
▁swallow	-10030
▁Line	-10031
▁wages	-10032
laration	-10033
▁earned	-10034
▁obsc	-10035
▁Captain	-10036
▁inherited	-10037
inals	-10038
▁explos	-10039
▁hills	-10040
yo	-10041
▁conservative	-10042
▁isolation	-10043
▁Ban	-10044
omp	-10045
yes	-10046
▁vibr	-10047
bow	-10048
arth	-10049
▁certific	-10050
uns	-10051
▁Oil	-10052
function	-10053
▁sustained	-10054
▁oxid	-10055
▁tens	-10056
▁themes	-10057
cular	-10058
▁geographic	-10059
▁weapon	-10060
▁epidem	-10061
▁fibers	-10062
▁Amazon	-10063
imedia	-10064
ilst	-10065
▁supplied	-10066
▁recommends	-10067
▁Cit	-10068
▁bell	-10069
▁Harry	-10070
▁discoveries	-10071
▁vaccination	-10072
▁Ontario	-10073
▁restored	-10074
who	-10075
yan	-10076
▁Proper	-10077
▁Yellow	-10078
ECT	-10079
▁maxim	-10080
▁honest	-10081
▁injection	-10082
▁patent	-10083
▁bearing	-10084
▁execution	-10085
▁submit	-10086
▁cellular	-10087
▁Poll	-10088
▁radar	-10089
▁pushed	-10090
▁Ger	-10091
▁MIT	-10092
▁astronaut	-10093
uese	-10094
▁Fall	-10095
▁Neb	-10096
icked	-10097
inery	-10098
▁Mind	-10099
▁Sex	-10100
▁knee	-10101
▁vector	-10102
uster	-10103
▁revenue	-10104
seud	-10105
▁chocolate	-10106
▁traditionally	-10107
▁chron	-10108
▁speeds	-10109
thon	-10110
▁Fisher	-10111
emor	-10112
▁swimming	-10113
▁firstname	-10114
▁fascinating	-10115
▁responsibilities	-10116
MI	-10117
enna	-10118
emed	-10119
▁Conc	-10120
▁bapt	-10121
▁imperial	-10122
▁Wars	-10123
▁progressive	-10124
▁ol	-10125
▁bonds	-10126
eous	-10127
▁worn	-10128
▁thinks	-10129
raid	-10130
▁namely	-10131
risk	-10132
▁modeling	-10133
▁Nobel	-10134
▁Territ	-10135
▁welcome	-10136
▁promising	-10137
ref	-10138
acular	-10139
▁alert	-10140
▁sympt	-10141
▁enabled	-10142
▁notable	-10143
▁wireless	-10144
▁inadequ	-10145
▁outdoor	-10146
May	-10147
TP	-10148
▁Nap	-10149
▁grants	-10150
▁yields	-10151
pted	-10152
▁valve	-10153
▁fertility	-10154
▁gains	-10155
▁Document	-10156
requ	-10157
reshold	-10158
stru	-10159
▁Depression	-10160
▁constitute	-10161
hour	-10162
▁Mit	-10163
ropriate	-10164
onent	-10165
▁conducting	-10166
▁bee	-10167
▁mapping	-10168
▁Cra	-10169
ulus	-10170
▁finish	-10171
eman	-10172
ollo	-10173
▁rent	-10174
govern	-10175
▁tanks	-10176
▁gentle	-10177
▁Freedom	-10178
▁descriptions	-10179
otechnology	-10180
▁pose	-10181
▁algorithm	-10182
you	-10183
▁defines	-10184
dimensional	-10185
▁sel	-10186
▁cameras	-10187
▁Cro	-10188
▁mold	-10189
▁mounted	-10190
▁obviously	-10191
▁prophe	-10192
▁Stone	-10193
▁Basic	-10194
▁poorly	-10195
▁routes	-10196
▁alleged	-10197
▁Oklahoma	-10198
rics	-10199
▁repeat	-10200
▁equipped	-10201
▁executed	-10202
▁rats	-10203
▁ensuring	-10204
▁controversy	-10205
ilton	-10206
inning	-10207
▁Sa	-10208
▁abd	-10209
ocent	-10210
▁thou	-10211
▁learners	-10212
▁scheduled	-10213
arer	-10214
▁dried	-10215
▁placing	-10216
▁wells	-10217
ni	-10218
vae	-10219
▁Best	-10220
▁aggreg	-10221
inton	-10222
▁unto	-10223
▁Korean	-10224
▁protest	-10225
▁independently	-10226
▁circles	-10227
▁update	-10228
▁Dom	-10229
▁Return	-10230
▁Vi	-10231
▁sug	-10232
▁reproduction	-10233
rell	-10234
▁diagram	-10235
▁Self	-10236
▁tough	-10237
▁sectors	-10238
cts	-10239
▁Name	-10240
▁unity	-10241
▁McG	-10242
▁proud	-10243
▁Imper	-10244
▁weekly	-10245
▁Foreign	-10246
▁exploring	-10247
▁Executive	-10248
▁astronomers	-10249
person	-10250
▁proport	-10251
▁speakers	-10252
▁reinforce	-10253
▁Comb	-10254
▁borders	-10255
▁Political	-10256
▁lunar	-10257
▁Scottish	-10258
▁cream	-10259
▁integrity	-10260
ugs	-10261
opsy	-10262
othy	-10263
sequently	-10264
▁precipitation	-10265
▁substantially	-10266
Le	-10267
dd	-10268
▁hazardous	-10269
agger	-10270
▁Quality	-10271
yt	-10272
▁capability	-10273
▁ham	-10274
▁distinctive	-10275
lob	-10276
▁overse	-10277
▁rear	-10278
▁digestive	-10279
▁assessments	-10280
▁ED	-10281
▁insu	-10282
▁transformation	-10283
▁Writing	-10284
shore	-10285
▁Bapt	-10286
▁guns	-10287
▁popularity	-10288
▁Nort	-10289
Be	-10290
▁PMID	-10291
▁intr	-10292
▁reh	-10293
▁coinc	-10294
▁forever	-10295
▁Previous	-10296
▁deadly	-10297
▁expend	-10298
▁cloth	-10299
elihood	-10300
▁Northwest	-10301
icut	-10302
▁NS	-10303
▁Moh	-10304
▁necessity	-10305
▁Declaration	-10306
▁workshop	-10307
▁fleet	-10308
▁shoes	-10309
▁disput	-10310
iki	-10311
plan	-10312
ontin	-10313
▁shoulder	-10314
▁reson	-10315
▁rememb	-10316
▁portray	-10317
UM	-10318
▁Box	-10319
▁Fram	-10320
▁wage	-10321
▁Polish	-10322
fly	-10323
▁ON	-10324
friend	-10325
▁ruling	-10326
▁memories	-10327
▁tric	-10328
PD	-10329
▁GDP	-10330
▁amongst	-10331
omer	-10332
▁Philip	-10333
▁anniversary	-10334
lyn	-10335
▁tracks	-10336
▁Military	-10337
▁gly	-10338
▁Agricultural	-10339
▁Ros	-10340
▁Iron	-10341
istence	-10342
▁Prior	-10343
▁fled	-10344
▁ignor	-10345
▁Douglas	-10346
▁guarantee	-10347
▁hepatitis	-10348
▁participated	-10349
▁Making	-10350
▁shadow	-10351
▁metabolic	-10352
▁ought	-10353
instein	-10354
fire	-10355
usive	-10356
▁forty	-10357
▁arrangement	-10358
oen	-10359
▁Twitter	-10360
▁races	-10361
▁compass	-10362
▁flooding	-10363
▁philosophical	-10364
chron	-10365
igm	-10366
inator	-10367
▁arbit	-10368
▁artistic	-10369
▁Archae	-10370
▁avoided	-10371
asa	-10372
▁dozen	-10373
iscal	-10374
▁Belg	-10375
▁lunch	-10376
▁plasma	-10377
▁aver	-10378
bul	-10379
ensively	-10380
▁considerably	-10381
▁node	-10382
▁rom	-10383
▁locally	-10384
▁odd	-10385
▁Front	-10386
▁reci	-10387
▁accordance	-10388
▁Regional	-10389
▁assumption	-10390
mia	-10391
▁Dak	-10392
▁Lic	-10393
▁Victoria	-10394
▁coron	-10395
▁march	-10396
▁invited	-10397
▁mutation	-10398
▁completion	-10399
▁Had	-10400
irs	-10401
▁gland	-10402
▁Monitor	-10403
▁appreciate	-10404
▁payment	-10405
▁drops	-10406
▁defeated	-10407
GB	-10408
▁membership	-10409
▁sket	-10410
▁Armen	-10411
▁viewing	-10412
▁consistently	-10413
▁FOR	-10414
▁compat	-10415
▁synthetic	-10416
▁revolutionary	-10417
▁bor	-10418
▁Prize	-10419
▁convinced	-10420
▁lying	-10421
natural	-10422
▁muc	-10423
▁monument	-10424
▁dictionary	-10425
▁ren	-10426
▁Related	-10427
▁territories	-10428
▁stretch	-10429
▁emission	-10430
▁unexpected	-10431
▁Collect	-10432
▁Luc	-10433
▁acquire	-10434
imic	-10435
▁oils	-10436
▁Corporation	-10437
▁confused	-10438
▁pix	-10439
roleum	-10440
▁answered	-10441
▁intensive	-10442
▁bottle	-10443
▁flexibility	-10444
arter	-10445
arched	-10446
▁Brook	-10447
▁fossils	-10448
▁incorporate	-10449
ountered	-10450
▁Apple	-10451
▁Memorial	-10452
▁intelligent	-10453
▁disadvant	-10454
▁OR	-10455
▁talks	-10456
ographer	-10457
▁Persian	-10458
▁Weather	-10459
▁Bon	-10460
monary	-10461
▁pollen	-10462
cribe	-10463
sized	-10464
▁influential	-10465
▁impressive	-10466
▁Results	-10467
▁neighbors	-10468
▁behalf	-10469
▁arrested	-10470
▁possession	-10471
▁glob	-10472
▁steady	-10473
▁politicians	-10474
▁PH	-10475
▁golden	-10476
▁parliament	-10477
eland	-10478
▁extends	-10479
▁BBC	-10480
achel	-10481
aning	-10482
orient	-10483
▁reflection	-10484
▁Defin	-10485
vo	-10486
pers	-10487
abilitation	-10488
aton	-10489
▁uter	-10490
▁Az	-10491
imony	-10492
rades	-10493
▁frozen	-10494
dess	-10495
▁biof	-10496
▁voluntary	-10497
▁releases	-10498
▁provinces	-10499
▁Alexand	-10500
▁chapters	-10501
▁likelihood	-10502
▁encountered	-10503
▁presidential	-10504
▁documentation	-10505
▁noun	-10506
compass	-10507
▁Tibet	-10508
▁boxes	-10509
▁sleeping	-10510
ausea	-10511
▁Stanford	-10512
▁ric	-10513
▁Nich	-10514
isible	-10515
▁discl	-10516
▁Prophet	-10517
▁colleges	-10518
▁imagination	-10519
▁nuts	-10520
▁conclude	-10521
umns	-10522
▁Kat	-10523
▁Chall	-10524
▁basin	-10525
▁Buddha	-10526
▁monthly	-10527
▁Priv	-10528
▁Ages	-10529
▁alike	-10530
▁announce	-10531
▁Teacher	-10532
▁aquatic	-10533
▁embedded	-10534
▁Syn	-10535
▁Bird	-10536
aft	-10537
▁chip	-10538
▁cycl	-10539
▁rises	-10540
▁acquis	-10541
▁desk	-10542
▁horn	-10543
▁Allen	-10544
eav	-10545
▁asks	-10546
▁headed	-10547
▁resolve	-10548
▁beta	-10549
▁institutional	-10550
RNA	-10551
▁Pow	-10552
▁Command	-10553
▁Movement	-10554
▁substitute	-10555
▁bills	-10556
PR	-10557
rise	-10558
father	-10559
▁Includ	-10560
▁persistent	-10561
▁peers	-10562
▁ride	-10563
▁Urban	-10564
high	-10565
owed	-10566
▁spark	-10567
han	-10568
amma	-10569
orious	-10570
▁achieving	-10571
▁Deb	-10572
▁choosing	-10573
▁Unit	-10574
arest	-10575
▁wake	-10576
▁virtue	-10577
▁shortly	-10578
ican	-10579
▁abroad	-10580
▁antioxid	-10581
stra	-10582
▁Aer	-10583
▁Bio	-10584
▁arteries	-10585
▁absorption	-10586
acher	-10587
▁Besides	-10588
▁teaches	-10589
▁comparing	-10590
▁denied	-10591
▁assumptions	-10592
obic	-10593
▁destro	-10594
▁Different	-10595
▁Tax	-10596
names	-10597
▁Prime	-10598
▁Answ	-10599
▁reserve	-10600
▁beds	-10601
▁refrig	-10602
▁lasting	-10603
▁hunger	-10604
actions	-10605
▁courage	-10606
▁loud	-10607
▁Behavior	-10608
edge	-10609
▁sle	-10610
▁gay	-10611
▁Cham	-10612
▁NA	-10613
hedral	-10614
▁Mental	-10615
▁solely	-10616
effective	-10617
▁Portuguese	-10618
▁alumin	-10619
▁voting	-10620
▁atom	-10621
▁kitchen	-10622
▁CN	-10623
▁carcin	-10624
izz	-10625
▁gathering	-10626
▁containers	-10627
▁efficiently	-10628
VD	-10629
▁Buddhist	-10630
▁genetics	-10631
▁Electric	-10632
▁Philosophy	-10633
▁crossing	-10634
ipe	-10635
▁rotation	-10636
gr	-10637
▁hypert	-10638
▁thoroughly	-10639
▁Alf	-10640
▁Country	-10641
▁surveillance	-10642
▁Rio	-10643
▁radi	-10644
▁associations	-10645
bro	-10646
▁Wy	-10647
unci	-10648
olis	-10649
▁consensus	-10650
▁Industrial	-10651
best	-10652
conn	-10653
▁bands	-10654
▁diagnose	-10655
arded	-10656
▁allergy	-10657
▁persec	-10658
esium	-10659
▁projected	-10660
eps	-10661
agus	-10662
urated	-10663
▁compact	-10664
▁Imm	-10665
▁grave	-10666
▁Healthy	-10667
▁bark	-10668
▁speaker	-10669
▁interpreted	-10670
ensing	-10671
▁warmer	-10672
▁Kim	-10673
▁Particip	-10674
▁opens	-10675
▁penal	-10676
▁alien	-10677
▁acceptance	-10678
▁recovered	-10679
▁repeatedly	-10680
▁Rose	-10681
▁Ve	-10682
.-	-10683
itate	-10684
▁Month	-10685
▁powder	-10686
▁Commer	-10687
▁inserted	-10688
Hz	-10689
▁%	-10690
▁timing	-10691
▁demonstrates	-10692
tles	-10693
▁Les	-10694
▁pursue	-10695
▁Job	-10696
▁instant	-10697
▁Advanced	-10698
rets	-10699
▁Benj	-10700
▁bowel	-10701
▁patch	-10702
▁undergo	-10703
ooked	-10704
▁bin	-10705
▁Wright	-10706
▁absent	-10707
▁arc	-10708
▁hang	-10709
▁comparable	-10710
▁aspir	-10711
▁ignored	-10712
ffe	-10713
▁cheese	-10714
warf	-10715
plane	-10716
▁Show	-10717
▁flesh	-10718
▁emerge	-10719
▁republic	-10720
▁enl	-10721
▁counts	-10722
▁initiated	-10723
ja	-10724
▁align	-10725
▁Period	-10726
esthetic	-10727
▁situated	-10728
▁TB	-10729
▁operational	-10730
auses	-10731
▁Mand	-10732
▁stack	-10733
▁Carbon	-10734
▁attain	-10735
▁expressions	-10736
▁dign	-10737
grim	-10738
▁busy	-10739
▁thank	-10740
▁convenient	-10741
iy	-10742
▁fart	-10743
develop	-10744
atre	-10745
▁drawings	-10746
▁Select	-10747
▁overs	-10748
▁spell	-10749
▁succeed	-10750
▁tracking	-10751
▁illustrate	-10752
▁Rod	-10753
leans	-10754
ternoon	-10755
▁memor	-10756
▁residence	-10757
▁counterpart	-10758
▁catast	-10759
▁Alb	-10760
▁bulk	-10761
▁afraid	-10762
▁methane	-10763
▁Amendment	-10764
▁implementing	-10765
sk	-10766
▁Pit	-10767
▁dispers	-10768
▁prevents	-10769
▁Seattle	-10770
▁dismiss	-10771
fat	-10772
van	-10773
▁determination	-10774
FC	-10775
▁fant	-10776
▁bases	-10777
uting	-10778
▁metres	-10779
▁Nep	-10780
annel	-10781
▁clients	-10782
▁monaster	-10783
▁expense	-10784
▁hip	-10785
▁appet	-10786
▁labels	-10787
▁nursing	-10788
▁attracted	-10789
olas	-10790
▁nurse	-10791
▁metabolism	-10792
▁offspring	-10793
conf	-10794
lings	-10795
▁Shar	-10796
▁timber	-10797
▁essence	-10798
upp	-10799
▁Ara	-10800
▁Very	-10801
▁Saturn	-10802
orney	-10803
▁tolerance	-10804
▁naval	-10805
▁electronics	-10806
▁refugees	-10807
imore	-10808
▁ceremony	-10809
▁conjunction	-10810
▁priests	-10811
▁trick	-10812
▁Cass	-10813
▁revised	-10814
One	-10815
▁illum	-10816
▁seasons	-10817
▁examining	-10818
▁leak	-10819
▁secular	-10820
▁economies	-10821
▁bom	-10822
▁vac	-10823
▁strand	-10824
▁originated	-10825
jan	-10826
aque	-10827
▁Rout	-10828
▁Na	-10829
▁kings	-10830
▁calculations	-10831
▁gastro	-10832
▁germ	-10833
▁Rap	-10834
▁explosion	-10835
▁hide	-10836
▁circular	-10837
▁pipe	-10838
▁melan	-10839
▁Protocol	-10840
▁celebration	-10841
▁Muh	-10842
▁pec	-10843
▁threshold	-10844
▁Import	-10845
▁brill	-10846
▁overwhelming	-10847
▁extinct	-10848
range	-10849
owners	-10850
▁Marshall	-10851
▁transformed	-10852
pton	-10853
▁Bol	-10854
icides	-10855
▁Basin	-10856
▁Enc	-10857
▁tsun	-10858
▁dynamics	-10859
▁archaeological	-10860
▁abdominal	-10861
▁equations	-10862
▁scattered	-10863
▁Independence	-10864
TC	-10865
▁nerves	-10866
▁implies	-10867
▁Need	-10868
▁toys	-10869
▁subur	-10870
▁tunnel	-10871
▁jurisdiction	-10872
▁drives	-10873
▁Sound	-10874
▁Protestant	-10875
cat	-10876
▁Norway	-10877
five	-10878
▁Cut	-10879
▁gau	-10880
▁elevation	-10881
br	-10882
▁mud	-10883
▁NI	-10884
oard	-10885
▁Initiative	-10886
rage	-10887
▁Fried	-10888
assium	-10889
▁Titan	-10890
▁tutorial	-10891
rup	-10892
▁buck	-10893
▁Orleans	-10894
▁strictly	-10895
▁primitive	-10896
▁responded	-10897
ART	-10898
▁Lower	-10899
▁Golden	-10900
▁Redu	-10901
otypes	-10902
▁unpre	-10903
aceut	-10904
▁constitu	-10905
▁Uk	-10906
activity	-10907
▁nas	-10908
▁legacy	-10909
▁destination	-10910
▁intermediate	-10911
Con	-10912
inus	-10913
▁Austria	-10914
▁wounded	-10915
elson	-10916
▁IBM	-10917
▁mini	-10918
▁Diagn	-10919
▁rings	-10920
ecessary	-10921
▁survivors	-10922
▁menu	-10923
white	-10924
▁gasoline	-10925
▁prosec	-10926
▁casual	-10927
alia	-10928
▁belt	-10929
formed	-10930
▁legislative	-10931
▁demonstration	-10932
Bl	-10933
acuum	-10934
▁Along	-10935
third	-10936
▁Anim	-10937
▁Universe	-10938
anas	-10939
▁spine	-10940
quality	-10941
▁explaining	-10942
afe	-10943
uine	-10944
▁voters	-10945
▁accessed	-10946
▁bite	-10947
▁prelim	-10948
rip	-10949
▁Broad	-10950
▁reviews	-10951
▁Core	-10952
▁Exerc	-10953
irie	-10954
▁careg	-10955
SE	-10956
By	-10957
▁scenes	-10958
▁referring	-10959
▁Inv	-10960
▁drew	-10961
▁IC	-10962
▁poisoning	-10963
▁Tele	-10964
▁misc	-10965
▁fragments	-10966
HT	-10967
▁MRI	-10968
school	-10969
▁pneumonia	-10970
iast	-10971
▁wra	-10972
▁Ethiop	-10973
▁disposal	-10974
▁engaging	-10975
▁groundwater	-10976
▁Eval	-10977
▁declar	-10978
▁consisted	-10979
▁indicators	-10980
chem	-10981
▁loyal	-10982
▁vapor	-10983
▁Usually	-10984
▁insights	-10985
isations	-10986
onymous	-10987
▁pitch	-10988
held	-10989
▁Torah	-10990
reement	-10991
▁ignore	-10992
▁extending	-10993
▁Benjamin	-10994
▁Magazine	-10995
itus	-10996
▁grammar	-10997
▁implant	-10998
▁shield	-10999
▁privacy	-11000
▁Bad	-11001
▁emperor	-11002
▁Connecticut	-11003
▁tower	-11004
▁thrown	-11005
▁drainage	-11006
▁headaches	-11007
▁tremendous	-11008
graduate	-11009
cet	-11010
▁Cab	-11011
▁Institutes	-11012
▁deple	-11013
▁seats	-11014
▁mes	-11015
cled	-11016
▁Hans	-11017
▁fitness	-11018
ayer	-11019
▁shares	-11020
▁episode	-11021
▁formerly	-11022
yard	-11023
ermat	-11024
gered	-11025
▁chim	-11026
copes	-11027
▁smallest	-11028
VI	-11029
▁lift	-11030
▁generating	-11031
▁socio	-11032
▁newborn	-11033
illy	-11034
▁picked	-11035
▁columns	-11036
▁transm	-11037
▁AB	-11038
ceive	-11039
ulative	-11040
▁flowing	-11041
▁Joh	-11042
▁Tree	-11043
▁Games	-11044
**	-11045
▁accidents	-11046
▁modest	-11047
▁asteroid	-11048
▁cran	-11049
▁toile	-11050
▁Travel	-11051
ierra	-11052
▁keys	-11053
▁locate	-11054
Ref	-11055
▁nick	-11056
▁avoiding	-11057
▁pressures	-11058
▁Anth	-11059
▁repet	-11060
▁decreases	-11061
▁accused	-11062
▁Buddhism	-11063
▁Ze	-11064
makers	-11065
▁imposed	-11066
▁Relations	-11067
▁developers	-11068
▁closest	-11069
ordan	-11070
▁Flow	-11071
gener	-11072
▁crash	-11073
hematic	-11074
▁alb	-11075
▁databases	-11076
▁Rub	-11077
▁proclaim	-11078
▁Federation	-11079
oil	-11080
oved	-11081
▁Tell	-11082
▁highlights	-11083
▁appointment	-11084
▁Apollo	-11085
▁Aristot	-11086
▁manufacturer	-11087
▁exch	-11088
▁makers	-11089
wind	-11090
▁Tok	-11091
inea	-11092
▁harsh	-11093
▁Brad	-11094
▁journals	-11095
whe	-11096
▁votes	-11097
▁notably	-11098
▁optimal	-11099
▁occurrence	-11100
▁herbs	-11101
▁programmes	-11102
Ab	-11103
▁Bridge	-11104
▁organize	-11105
erb	-11106
▁PR	-11107
▁thickness	-11108
uct	-11109
ltry	-11110
▁Fem	-11111
▁preliminary	-11112
▁negotiations	-11113
four	-11114
▁critics	-11115
▁Aqu	-11116
▁Lady	-11117
▁Soft	-11118
▁Bishop	-11119
▁altitude	-11120
▁phon	-11121
▁probe	-11122
▁stiff	-11123
isl	-11124
▁desp	-11125
▁straw	-11126
odge	-11127
igrant	-11128
▁fears	-11129
▁Publ	-11130
▁brush	-11131
onto	-11132
income	-11133
▁Datab	-11134
▁contra	-11135
iens	-11136
▁Deep	-11137
▁Frederick	-11138
▁(“	-11139
▁overt	-11140
▁Hispanic	-11141
arios	-11142
▁gear	-11143
case	-11144
▁Tu	-11145
▁promoted	-11146
▁Hug	-11147
▁Biological	-11148
Qu	-11149
▁Negro	-11150
▁Visual	-11151
reas	-11152
▁stops	-11153
▁Genesis	-11154
▁pink	-11155
auc	-11156
two	-11157
▁calm	-11158
▁larvae	-11159
ulator	-11160
▁Members	-11161
▁commander	-11162
agu	-11163
unes	-11164
▁cha	-11165
▁peripher	-11166
▁discusses	-11167
nea	-11168
▁Turkish	-11169
▁battles	-11170
▁Philippines	-11171
▁scarce	-11172
▁seizures	-11173
▁upl	-11174
▁Pict	-11175
▁bicy	-11176
▁cardiac	-11177
▁promised	-11178
▁publicly	-11179
▁antibiotic	-11180
▁dangers	-11181
mouth	-11182
▁impression	-11183
giene	-11184
▁soap	-11185
▁Conserv	-11186
▁Pharm	-11187
▁nucleus	-11188
FS	-11189
▁relieve	-11190
rett	-11191
▁Gir	-11192
▁glands	-11193
▁volunteer	-11194
ez	-11195
▁mankind	-11196
look	-11197
▁seeks	-11198
▁dated	-11199
▁Emergency	-11200
▁spite	-11201
▁fisheries	-11202
▁attempting	-11203
▁transparent	-11204
!”	-11205
mill	-11206
▁Walter	-11207
▁assessed	-11208
ko	-11209
anna	-11210
▁Ross	-11211
▁Whit	-11212
▁stems	-11213
▁Nuclear	-11214
ishops	-11215
▁boats	-11216
▁Newton	-11217
ciplinary	-11218
▁advocates	-11219
▁afternoon	-11220
▁crowd	-11221
▁CL	-11222
▁Lt	-11223
▁caution	-11224
Res	-11225
▁arsen	-11226
▁operators	-11227
▁historically	-11228
cult	-11229
▁Anton	-11230
▁Anderson	-11231
▁Coal	-11232
▁Visit	-11233
▁floating	-11234
▁suppress	-11235
▁founding	-11236
▁uncertainty	-11237
▁Gi	-11238
first	-11239
▁quad	-11240
▁Annual	-11241
▁encompass	-11242
▁Ku	-11243
▁Hal	-11244
urred	-11245
▁Pier	-11246
▁yes	-11247
▁bags	-11248
▁inherit	-11249
▁Was	-11250
▁creature	-11251
▁kidneys	-11252
▁Ra	-11253
gebra	-11254
▁fung	-11255
formance	-11256
▁abdomen	-11257
▁devastating	-11258
▁Alliance	-11259
▁pulled	-11260
iances	-11261
▁dat	-11262
▁loan	-11263
▁Cuba	-11264
▁placebo	-11265
▁bats	-11266
▁neural	-11267
▁excited	-11268
▁Knowledge	-11269
▁robust	-11270
▁electrom	-11271
▁corporations	-11272
▁terminal	-11273
comp	-11274
▁Imperial	-11275
▁headache	-11276
▁pollutants	-11277
▁artifacts	-11278
ERS	-11279
ophy	-11280
quest	-11281
▁infl	-11282
inding	-11283
▁uranium	-11284
▁consec	-11285
▁farmer	-11286
▁Loc	-11287
▁Opt	-11288
▁subtle	-11289
▁religions	-11290
▁consp	-11291
▁deterior	-11292
▁smok	-11293
iking	-11294
▁imported	-11295
▁RE	-11296
▁Credit	-11297
▁rescue	-11298
▁soldier	-11299
iffs	-11300
rasound	-11301
▁firms	-11302
▁enters	-11303
AIDS	-11304
▁beer	-11305
▁permits	-11306
ener	-11307
▁Nat	-11308
▁Vill	-11309
▁twentieth	-11310
cor	-11311
pler	-11312
ysics	-11313
▁Fourth	-11314
▁checked	-11315
▁Juda	-11316
▁belongs	-11317
▁receptor	-11318
energy	-11319
imb	-11320
igs	-11321
▁evacu	-11322
▁tourism	-11323
▁distress	-11324
▁watershed	-11325
▁champ	-11326
▁femin	-11327
▁tuber	-11328
eem	-11329
▁thorough	-11330
▁assignment	-11331
uity	-11332
▁cod	-11333
▁eds	-11334
▁encourages	-11335
▁password	-11336
▁mask	-11337
▁retail	-11338
arse	-11339
▁Almost	-11340
▁drilling	-11341
▁eligible	-11342
▁Hell	-11343
▁Proceedings	-11344
▁football	-11345
▁spill	-11346
▁wealthy	-11347
▁Cultural	-11348
front	-11349
▁gallons	-11350
▁Throughout	-11351
▁mainstream	-11352
sl	-11353
").	-11354
▁frequencies	-11355
▁shade	-11356
▁drag	-11357
itzerland	-11358
▁Chemical	-11359
▁spelling	-11360
▁EN	-11361
▁inver	-11362
▁Generally	-11363
MM	-11364
▁disci	-11365
▁Present	-11366
plus	-11367
wealth	-11368
▁magic	-11369
▁tribal	-11370
==	-11371
▁hearts	-11372
endix	-11373
▁quoted	-11374
ilateral	-11375
▁integral	-11376
▁explored	-11377
▁Ky	-11378
▁Hait	-11379
▁bold	-11380
oths	-11381
heres	-11382
▁reven	-11383
▁transit	-11384
▁vine	-11385
▁Video	-11386
▁empir	-11387
▁Hopkins	-11388
amation	-11389
▁sorts	-11390
▁campaigns	-11391
▁civilian	-11392
▁bore	-11393
▁currents	-11394
▁synthesis	-11395
▁fee	-11396
▁Team	-11397
▁clusters	-11398
▁rubber	-11399
aki	-11400
rost	-11401
▁anch	-11402
▁pulse	-11403
▁por	-11404
arium	-11405
olia	-11406
roups	-11407
▁Magn	-11408
▁Summer	-11409
reens	-11410
▁deriv	-11411
▁fails	-11412
▁determines	-11413
▁AC	-11414
letter	-11415
screen	-11416
▁strat	-11417
▁chromosome	-11418
enders	-11419
▁mines	-11420
▁Evidence	-11421
▁pest	-11422
▁Olympic	-11423
hops	-11424
▁customs	-11425
▁unclear	-11426
itored	-11427
oping	-11428
▁Iss	-11429
Pl	-11430
EST	-11431
ROM	-11432
▁Bos	-11433
▁Hou	-11434
alry	-11435
strate	-11436
▁glory	-11437
orse	-11438
▁Upper	-11439
▁steep	-11440
▁graphics	-11441
▁Planning	-11442
▁geography	-11443
▁cataly	-11444
▁followers	-11445
▁heter	-11446
▁Vo	-11447
▁Greeks	-11448
▁healthier	-11449
they	-11450
▁coins	-11451
▁exceed	-11452
▁compiled	-11453
▁premature	-11454
ingham	-11455
▁Venus	-11456
▁Veter	-11457
▁chips	-11458
▁vein	-11459
▁combust	-11460
▁poems	-11461
▁authentic	-11462
▁hurricane	-11463
▁Russell	-11464
▁descendants	-11465
▁Pra	-11466
▁dinosaurs	-11467
▁conception	-11468
Figure	-11469
▁bes	-11470
▁Body	-11471
▁butt	-11472
▁Maria	-11473
▁divisions	-11474
▁pand	-11475
▁Simon	-11476
▁affil	-11477
▁intestine	-11478
▁manufactured	-11479
▁Pil	-11480
▁Records	-11481
▁interviews	-11482
zens	-11483
▁dinner	-11484
ORD	-11485
▁gaps	-11486
▁powered	-11487
▁Mong	-11488
▁feas	-11489
▁affirm	-11490
▁ethics	-11491
iors	-11492
▁kern	-11493
▁senses	-11494
▁maternal	-11495
▁Aboriginal	-11496
▁eliminated	-11497
DR	-11498
▁finance	-11499
▁undertaken	-11500
erto	-11501
▁Byz	-11502
▁gut	-11503
▁operator	-11504
▁acquisition	-11505
▁flavor	-11506
▁Baltimore	-11507
▁inadequate	-11508
cow	-11509
▁retire	-11510
▁strings	-11511
▁continuously	-11512
▁beef	-11513
▁safer	-11514
▁Howard	-11515
only	-11516
▁Israeli	-11517
▁descent	-11518
▁Dick	-11519
▁Rain	-11520
▁Dur	-11521
▁Award	-11522
▁bitter	-11523
▁Hamilton	-11524
rock	-11525
▁correlation	-11526
kh	-11527
orie	-11528
▁creativity	-11529
▁mistake	-11530
▁customer	-11531
▁washing	-11532
▁surviving	-11533
was	-11534
▁sword	-11535
Health	-11536
▁matrix	-11537
▁specify	-11538
▁degradation	-11539
▁fertilizer	-11540
hett	-11541
▁Roc	-11542
Ps	-11543
ilty	-11544
▁Lam	-11545
▁Download	-11546
▁disabled	-11547
▁prohibited	-11548
▁Tro	-11549
generation	-11550
▁depri	-11551
▁speaks	-11552
appropriate	-11553
dam	-11554
▁Morm	-11555
▁duplic	-11556
▁vic	-11557
▁corruption	-11558
▁importantly	-11559
aughters	-11560
▁belonging	-11561
▁symptom	-11562
▁disappeared	-11563
▁Haz	-11564
▁Tour	-11565
▁ethanol	-11566
▁alongside	-11567
▁Dakota	-11568
▁dispute	-11569
▁retreat	-11570
▁agreements	-11571
▁throne	-11572
▁confined	-11573
wall	-11574
▁clot	-11575
▁progression	-11576
▁Eric	-11577
▁Effects	-11578
▁retained	-11579
▁disasters	-11580
▁rebell	-11581
▁Intellig	-11582
▁employee	-11583
▁Nile	-11584
▁attribute	-11585
▁Switzerland	-11586
▁Domin	-11587
▁reefs	-11588
▁Wolf	-11589
▁Kings	-11590
▁Eve	-11591
ulses	-11592
▁Pediatrics	-11593
▁digit	-11594
orks	-11595
human	-11596
▁Hart	-11597
▁silicon	-11598
▁yeast	-11599
pres	-11600
▁intervals	-11601
▁monitored	-11602
▁therapeutic	-11603
▁CON	-11604
iatry	-11605
▁stimulate	-11606
▁specialists	-11607
▁IUCN	-11608
▁spont	-11609
▁raises	-11610
olecular	-11611
▁Updated	-11612
▁unsu	-11613
▁Title	-11614
uis	-11615
▁SA	-11616
▁Imag	-11617
▁IL	-11618
▁classrooms	-11619
▁inspiration	-11620
▁Nan	-11621
▁Pi	-11622
▁meets	-11623
▁Muhammad	-11624
▁coordination	-11625
osity	-11626
rying	-11627
▁afterwards	-11628
▁Anti	-11629
▁Ball	-11630
inology	-11631
▁commemor	-11632
▁Communist	-11633
eded	-11634
zech	-11635
▁interrupt	-11636
▁ber	-11637
▁prin	-11638
▁foundations	-11639
▁Dub	-11640
▁fired	-11641
▁investigated	-11642
="	-11643
hr	-11644
▁Ce	-11645
▁bay	-11646
▁recur	-11647
ilib	-11648
▁Hun	-11649
▁McK	-11650
ccles	-11651
▁Zion	-11652
▁agenda	-11653
▁Stock	-11654
▁guided	-11655
▁viable	-11656
▁Zh	-11657
▁Roberts	-11658
▁requests	-11659
▁jet	-11660
▁numb	-11661
rophic	-11662
▁reads	-11663
▁Mercury	-11664
▁acre	-11665
▁graphic	-11666
▁insufficient	-11667
▁earthquakes	-11668
▁dual	-11669
▁Ground	-11670
▁offset	-11671
▁Antarctic	-11672
away	-11673
▁palm	-11674
▁Creative	-11675
ruit	-11676
bian	-11677
▁hoped	-11678
▁respective	-11679
▁advertising	-11680
▁modes	-11681
▁paths	-11682
▁que	-11683
▁lining	-11684
▁compete	-11685
▁accounting	-11686
▁rept	-11687
▁Total	-11688
▁discussing	-11689
▁cope	-11690
▁pound	-11691
▁defining	-11692
especially	-11693
▁Kal	-11694
▁mutual	-11695
▁briefly	-11696
▁editors	-11697
▁genuine	-11698
lied	-11699
▁bip	-11700
orship	-11701
▁noble	-11702
▁URL	-11703
▁sacrific	-11704
len	-11705
▁leuk	-11706
py	-11707
▁reforms	-11708
imeter	-11709
▁entity	-11710
▁GN	-11711
iang	-11712
▁Moore	-11713
▁observing	-11714
ococc	-11715
▁ties	-11716
ewater	-11717
▁vacuum	-11718
▁endeav	-11719
▁margin	-11720
▁nausea	-11721
▁protects	-11722
host	-11723
▁Kir	-11724
cedented	-11725
▁Ow	-11726
▁Primary	-11727
▁employers	-11728
▁bias	-11729
▁sexually	-11730
▁motivation	-11731
akh	-11732
John	-11733
▁bishop	-11734
rative	-11735
▁fluor	-11736
velation	-11737
arms	-11738
▁boards	-11739
▁judges	-11740
▁indication	-11741
▁markers	-11742
▁sensory	-11743
▁Question	-11744
▁marginal	-11745
▁hol	-11746
▁Base	-11747
▁sanct	-11748
▁Plants	-11749
▁traged	-11750
▁Summary	-11751
▁grams	-11752
▁biopsy	-11753
▁winning	-11754
▁legitimate	-11755
▁nic	-11756
▁cows	-11757
▁Youth	-11758
▁conform	-11759
enaissance	-11760
Eng	-11761
▁passengers	-11762
ipse	-11763
ighters	-11764
PC	-11765
▁collaps	-11766
eterm	-11767
▁tang	-11768
▁Maybe	-11769
▁investigations	-11770
▁dwell	-11771
▁settle	-11772
▁stayed	-11773
▁entries	-11774
▁precious	-11775
▁acknowledged	-11776
oub	-11777
▁esoph	-11778
▁numer	-11779
▁symmet	-11780
▁Region	-11781
▁applicable	-11782
▁Hong	-11783
▁dialogue	-11784
▁prolonged	-11785
▁pride	-11786
▁Jordan	-11787
▁educate	-11788
▁personally	-11789
din	-11790
▁whale	-11791
▁Looking	-11792
▁separately	-11793
amous	-11794
▁heal	-11795
▁Syria	-11796
▁predictions	-11797
▁toxins	-11798
▁connecting	-11799
▁Kenya	-11800
▁tired	-11801
▁Sant	-11802
▁remembered	-11803
aved	-11804
emen	-11805
arten	-11806
▁yard	-11807
▁authorized	-11808
▁billions	-11809
▁Lis	-11810
▁pushing	-11811
▁enabling	-11812
▁crossed	-11813
▁angles	-11814
▁microscope	-11815
olics	-11816
▁workplace	-11817
▁indoor	-11818
▁interval	-11819
▁Technical	-11820
▁Lakes	-11821
▁Description	-11822
IO	-11823
▁retired	-11824
▁readings	-11825
▁terrible	-11826
▁designing	-11827
usions	-11828
▁labeled	-11829
▁Authority	-11830
▁realistic	-11831
▁illustrations	-11832
path	-11833
▁snake	-11834
▁guides	-11835
▁explanations	-11836
▁lesser	-11837
▁Atlanta	-11838
▁freshwater	-11839
▁sixth	-11840
▁acknowledge	-11841
flies	-11842
ependent	-11843
▁indicator	-11844
▁NOAA	-11845
▁seas	-11846
▁titles	-11847
▁blo	-11848
ennium	-11849
opathy	-11850
▁ma	-11851
▁Clear	-11852
ationally	-11853
▁outstanding	-11854
▁plug	-11855
hot	-11856
good	-11857
▁Geological	-11858
atching	-11859
▁PT	-11860
▁Compar	-11861
▁cervical	-11862
▁RA	-11863
▁limiting	-11864
▁cooperative	-11865
▁geographical	-11866
▁caut	-11867
etry	-11868
▁deals	-11869
▁combinations	-11870
▁Hud	-11871
▁freed	-11872
opor	-11873
▁voy	-11874
▁amph	-11875
▁Always	-11876
▁Soci	-11877
▁receptors	-11878
▁jew	-11879
▁sphere	-11880
▁Princeton	-11881
eu	-11882
▁Song	-11883
▁warfare	-11884
healthy	-11885
▁Solomon	-11886
pm	-11887
▁Tal	-11888
▁Thom	-11889
▁Observatory	-11890
En	-11891
▁travels	-11892
▁feathers	-11893
▁lasted	-11894
yers	-11895
▁Recomm	-11896
dered	-11897
▁trains	-11898
etheless	-11899
ika	-11900
▁geometry	-11901
▁warrant	-11902
▁incorrect	-11903
▁contracts	-11904
▁sore	-11905
lessly	-11906
▁purely	-11907
opter	-11908
osure	-11909
▁Love	-11910
▁Taking	-11911
▁precision	-11912
oglob	-11913
▁Fif	-11914
letin	-11915
▁flies	-11916
▁metap	-11917
▁biomass	-11918
▁deficit	-11919
▁navigation	-11920
!)	-11921
ellar	-11922
riction	-11923
▁spokes	-11924
Art	-11925
▁Gas	-11926
▁modules	-11927
▁cous	-11928
▁eternal	-11929
▁infrared	-11930
▁petition	-11931
▁Literature	-11932
▁rival	-11933
▁enterprise	-11934
WS	-11935
▁kin	-11936
▁lith	-11937
▁shark	-11938
▁dimension	-11939
▁admin	-11940
▁blocked	-11941
▁adul	-11942
culosis	-11943
▁theology	-11944
▁investments	-11945
regn	-11946
▁costly	-11947
LS	-11948
▁SM	-11949
▁Ori	-11950
▁coin	-11951
estinal	-11952
▁darkness	-11953
▁entities	-11954
▁Geographic	-11955
aza	-11956
▁sho	-11957
▁brick	-11958
▁oxide	-11959
▁facial	-11960
▁Southeast	-11961
▁architectural	-11962
ESS	-11963
uble	-11964
▁Renaissance	-11965
▁feat	-11966
▁gross	-11967
▁hosts	-11968
▁appetite	-11969
▁engagement	-11970
▁Chair	-11971
▁unders	-11972
▁dispar	-11973
▁operates	-11974
▁sponsored	-11975
▁Game	-11976
▁static	-11977
▁Oak	-11978
▁Virt	-11979
▁melt	-11980
▁Below	-11981
▁Christopher	-11982
ths	-11983
▁WH	-11984
vity	-11985
▁testimony	-11986
kal	-11987
matic	-11988
▁cavity	-11989
▁harass	-11990
asis	-11991
▁landed	-11992
opt	-11993
▁ingest	-11994
▁Example	-11995
fficiency	-11996
pa	-11997
▁Cru	-11998
▁Steve	-11999
atherine	-12000
▁ecology	-12001
▁ate	-12002
▁Programme	-12003
▁compliance	-12004
▁regulated	-12005
▁Indigenous	-12006
Col	-12007
▁highway	-12008
▁simulation	-12009
sa	-12010
▁brilliant	-12011
▁considerations	-12012
▁poultry	-12013
atile	-12014
▁alleg	-12015
fulness	-12016
▁Der	-12017
▁LED	-12018
▁ranks	-12019
▁incentives	-12020
▁Give	-12021
▁carrier	-12022
mn	-12023
▁Snow	-12024
▁Parks	-12025
▁shouldn	-12026
▁congress	-12027
▁hypertension	-12028
resistant	-12029
▁Police	-12030
▁exclusive	-12031
▁evaluating	-12032
bet	-12033
▁Sierra	-12034
xic	-12035
▁Element	-12036
▁abortion	-12037
rowse	-12038
▁erad	-12039
▁relates	-12040
▁altogether	-12041
▁wax	-12042
▁trips	-12043
▁Gord	-12044
arding	-12045
▁outline	-12046
nty	-12047
post	-12048
▁unions	-12049
▁machinery	-12050
phe	-12051
▁angry	-12052
Pe	-12053
▁crude	-12054
▁subscrib	-12055
▁requested	-12056
▁Fox	-12057
▁rash	-12058
▁Tai	-12059
▁surgeon	-12060
▁alphabet	-12061
reprene	-12062
▁inquiry	-12063
▁lacking	-12064
▁Palestine	-12065
▁NAT	-12066
▁curious	-12067
▁unprecedented	-12068
▁SC	-12069
▁Pay	-12070
▁unnecessary	-12071
ixon	-12072
ovenant	-12073
▁traces	-12074
▁astronomy	-12075
▁prone	-12076
▁veterin	-12077
▁Einstein	-12078
▁forgotten	-12079
▁farther	-12080
▁registration	-12081
agog	-12082
bled	-12083
etal	-12084
▁rhythm	-12085
▁sid	-12086
▁Record	-12087
▁Winter	-12088
▁phases	-12089
▁challenged	-12090
igma	-12091
marks	-12092
▁dump	-12093
▁warned	-12094
BA	-12095
esthes	-12096
giving	-12097
▁Create	-12098
▁mistakes	-12099
▁explicitly	-12100
astics	-12101
▁Swedish	-12102
▁cer	-12103
▁tet	-12104
▁proposals	-12105
▁realm	-12106
▁Around	-12107
▁Prevent	-12108
ctica	-12109
▁pigs	-12110
▁scal	-12111
▁induced	-12112
▁publishing	-12113
▁cro	-12114
▁pronounced	-12115
▁assass	-12116
▁singing	-12117
▁homework	-12118
▁practiced	-12119
▁scenarios	-12120
▁intact	-12121
▁similarly	-12122
▁disciplines	-12123
pub	-12124
engu	-12125
angular	-12126
▁delayed	-12127
forestation	-12128
ucks	-12129
umat	-12130
erald	-12131
▁toll	-12132
utenant	-12133
▁discom	-12134
▁worlds	-12135
▁Chemistry	-12136
asted	-12137
▁Czech	-12138
▁marrow	-12139
▁Advis	-12140
▁VI	-12141
▁sake	-12142
▁Patrick	-12143
▁ink	-12144
▁proc	-12145
itar	-12146
▁juven	-12147
▁Apost	-12148
▁liber	-12149
esterday	-12150
▁FIG	-12151
▁Creation	-12152
▁payments	-12153
▁automatic	-12154
▁passive	-12155
▁Database	-12156
uliar	-12157
▁aluminum	-12158
▁banned	-12159
ige	-12160
▁exem	-12161
▁slide	-12162
EX	-12163
mus	-12164
▁Yale	-12165
▁diesel	-12166
▁Alcohol	-12167
▁Ms	-12168
some	-12169
▁dehyd	-12170
▁NC	-12171
▁contributes	-12172
berries	-12173
▁segments	-12174
▁stressed	-12175
▁Architect	-12176
abs	-12177
▁basket	-12178
▁Denmark	-12179
rof	-12180
▁fier	-12181
▁Margaret	-12182
▁sufficiently	-12183
▁specimen	-12184
▁continually	-12185
ji	-12186
ochond	-12187
▁movies	-12188
▁advised	-12189
▁Economics	-12190
access	-12191
▁Programs	-12192
▁strikes	-12193
▁replacing	-12194
▁cruel	-12195
▁nationwide	-12196
▁Notes	-12197
▁peaceful	-12198
▁OK	-12199
▁sor	-12200
▁bars	-12201
▁Multip	-12202
▁desirable	-12203
▁Mathematics	-12204
▁Beach	-12205
▁designers	-12206
▁XML	-12207
SP	-12208
▁plural	-12209
ognition	-12210
▁Skin	-12211
▁Account	-12212
▁Strateg	-12213
▁dependence	-12214
▁Fle	-12215
ennis	-12216
oxic	-12217
▁Night	-12218
▁loaded	-12219
▁variability	-12220
parent	-12221
▁potassium	-12222
AND	-12223
▁sau	-12224
▁Brother	-12225
▁listing	-12226
▁suspended	-12227
rade	-12228
▁potatoes	-12229
▁UC	-12230
▁titled	-12231
ikh	-12232
▁maintains	-12233
▁episodes	-12234
ATE	-12235
▁utter	-12236
▁moments	-12237
▁mechanics	-12238
▁Eventually	-12239
▁HPV	-12240
▁Susan	-12241
▁Alan	-12242
▁tomb	-12243
▁forcing	-12244
▁shipping	-12245
▁outbreaks	-12246
lies	-12247
▁trap	-12248
chi	-12249
▁Upon	-12250
▁Gallery	-12251
▁rows	-12252
▁quote	-12253
▁median	-12254
cm	-12255
ikes	-12256
▁Build	-12257
▁fiscal	-12258
▁enlar	-12259
▁united	-12260
▁toxicity	-12261
▁headquarters	-12262
▁breastfeeding	-12263
▁ic	-12264
version	-12265
▁filling	-12266
▁passages	-12267
▁Joint	-12268
aden	-12269
leys	-12270
▁Salt	-12271
▁somehow	-12272
▁prevalent	-12273
▁Viol	-12274
thening	-12275
▁impaired	-12276
▁planes	-12277
▁Religion	-12278
▁symbolic	-12279
roximately	-12280
▁mast	-12281
cap	-12282
▁downt	-12283
▁recycled	-12284
▁AF	-12285
▁Nev	-12286
▁fulfill	-12287
▁loans	-12288
▁strip	-12289
▁Hurricane	-12290
▁Bull	-12291
▁destructive	-12292
TO	-12293
▁zinc	-12294
▁weren	-12295
▁Letters	-12296
▁threatening	-12297
▁fluctu	-12298
▁Europeans	-12299
▁teachings	-12300
▁wilderness	-12301
▁practitioners	-12302
▁settlements	-12303
▁crystal	-12304
▁improves	-12305
▁Guidelines	-12306
oriented	-12307
pur	-12308
▁shells	-12309
ensitive	-12310
olutions	-12311
▁icon	-12312
▁Disorders	-12313
▁Burn	-12314
▁phrases	-12315
▁tsunami	-12316
▁circuits	-12317
▁Kong	-12318
▁wast	-12319
▁illustrates	-12320
aho	-12321
tha	-12322
▁seemingly	-12323
▁Electronic	-12324
▁Sri	-12325
▁pole	-12326
odynam	-12327
▁environmentally	-12328
don	-12329
ogene	-12330
▁filed	-12331
ulous	-12332
▁modify	-12333
▁cheaper	-12334
▁foster	-12335
log	-12336
▁Past	-12337
▁Chron	-12338
▁sq	-12339
asting	-12340
▁Clinton	-12341
▁abnormalities	-12342
angers	-12343
urrection	-12344
▁Lan	-12345
▁Sudan	-12346
▁lateral	-12347
▁petroleum	-12348
▁Mun	-12349
second	-12350
▁Partners	-12351
▁courtesy	-12352
▁modifications	-12353
osynt	-12354
▁Bart	-12355
▁dwarf	-12356
▁ports	-12357
▁Depending	-12358
▁quot	-12359
▁divor	-12360
▁Articles	-12361
▁Argentina	-12362
phy	-12363
▁patches	-12364
▁deny	-12365
▁Tel	-12366
▁melting	-12367
▁GPS	-12368
▁sharks	-12369
▁heated	-12370
▁slower	-12371
illes	-12372
▁Planet	-12373
▁cooked	-12374
▁activists	-12375
▁reductions	-12376
▁extensively	-12377
cr	-12378
egu	-12379
▁Bud	-12380
▁veins	-12381
▁Toronto	-12382
▁formally	-12383
▁incidents	-12384
▁Consequently	-12385
▁Canal	-12386
▁Forum	-12387
friendly	-12388
"),	-12389
▁..	-12390
▁continental	-12391
aux	-12392
▁gang	-12393
▁surely	-12394
▁ruler	-12395
ilibrium	-12396
▁Extension	-12397
▁exceptions	-12398
appy	-12399
▁Syd	-12400
▁immense	-12401
▁essays	-12402
▁occasions	-12403
▁blame	-12404
raviolet	-12405
▁pathogens	-12406
month	-12407
reach	-12408
▁Words	-12409
tically	-12410
▁proceed	-12411
▁coordinate	-12412
dri	-12413
rubs	-12414
thirds	-12415
▁slope	-12416
▁Ottoman	-12417
▁consuming	-12418
▁attending	-12419
▁Sustainable	-12420
po	-12421
wid	-12422
▁>>	-12423
arches	-12424
▁cosmic	-12425
weet	-12426
▁Gib	-12427
▁damaging	-12428
▁pathways	-12429
▁compensation	-12430
sur	-12431
▁da	-12432
doors	-12433
▁perspectives	-12434
▁collaborative	-12435
▁OCR	-12436
▁Live	-12437
▁apost	-12438
▁Hope	-12439
▁arrangements	-12440
ili	-12441
sky	-12442
ocene	-12443
▁rabb	-12444
cf	-12445
▁Fun	-12446
▁truck	-12447
ophers	-12448
▁YOU	-12449
olith	-12450
illery	-12451
▁Sarah	-12452
▁Activity	-12453
▁Beyond	-12454
▁informal	-12455
▁vocal	-12456
▁talked	-12457
▁occasional	-12458
▁encry	-12459
▁pointing	-12460
scill	-12461
▁gifts	-12462
▁watched	-12463
.(	-12464
nest	-12465
▁buffer	-12466
▁Originally	-12467
▁Grade	-12468
▁economically	-12469
hal	-12470
arma	-12471
▁vow	-12472
there	-12473
▁Birth	-12474
▁Problems	-12475
▁Catholics	-12476
cery	-12477
▁trapped	-12478
▁Lev	-12479
▁shopping	-12480
▁Napole	-12481
▁whilst	-12482
▁Professional	-12483
▁Kit	-12484
▁Morris	-12485
▁filters	-12486
intestinal	-12487
PP	-12488
pha	-12489
▁Verm	-12490
▁spirits	-12491
▁furniture	-12492
▁temporarily	-12493
▁Immun	-12494
usually	-12495
oporosis	-12496
▁Nearly	-12497
▁Antarctica	-12498
uilt	-12499
▁emergence	-12500
▁Could	-12501
▁stuck	-12502
alin	-12503
▁Sleep	-12504
▁Babylon	-12505
▁Aristotle	-12506
ailand	-12507
▁updates	-12508
▁robots	-12509
▁Reports	-12510
▁assembled	-12511
▁generator	-12512
deg	-12513
xious	-12514
▁Abstract	-12515
▁secretary	-12516
iciency	-12517
▁humidity	-12518
▁supporters	-12519
▁Ever	-12520
▁Would	-12521
▁rover	-12522
▁Judaism	-12523
▁Arkansas	-12524
▁wed	-12525
▁alternate	-12526
▁integrate	-12527
▁floods	-12528
criptions	-12529
Or	-12530
ova	-12531
bird	-12532
▁peculiar	-12533
▁restaurants	-12534
iser	-12535
▁Luke	-12536
▁Montana	-12537
▁FL	-12538
▁Cany	-12539
▁Gospel	-12540
▁guilty	-12541
date	-12542
▁Amb	-12543
▁Joe	-12544
"?	-12545
▁resil	-12546
▁anemia	-12547
▁thesis	-12548
FA	-12549
supp	-12550
▁trunk	-12551
▁promotes	-12552
km	-12553
▁resolved	-12554
▁neighbour	-12555
▁EC	-12556
▁legislature	-12557
▁CR	-12558
induced	-12559
▁Volunt	-12560
▁hungry	-12561
▁Houston	-12562
▁ingredient	-12563
cca	-12564
pop	-12565
▁Hind	-12566
▁reproduce	-12567
lux	-12568
roach	-12569
iotic	-12570
▁consolid	-12571
▁oun	-12572
▁Wallace	-12573
▁meanings	-12574
▁prosperity	-12575
▁Say	-12576
strong	-12577
▁certified	-12578
Im	-12579
▁Price	-12580
▁loads	-12581
▁hind	-12582
pective	-12583
▁verbal	-12584
▁promotion	-12585
▁Hi	-12586
▁Link	-12587
▁invisible	-12588
▁charter	-12589
▁refriger	-12590
▁Discovery	-12591
▁lesions	-12592
▁discomfort	-12593
eur	-12594
▁Cry	-12595
▁fool	-12596
▁warri	-12597
▁deemed	-12598
▁Comment	-12599
▁constraints	-12600
▁Sin	-12601
▁dirt	-12602
▁breakfast	-12603
▁hasn	-12604
▁sends	-12605
▁Sydney	-12606
▁grazing	-12607
▁terrain	-12608
▁Sel	-12609
▁rum	-12610
▁delight	-12611
▁Progress	-12612
adi	-12613
▁lact	-12614
▁Queens	-12615
▁imagery	-12616
▁Mechan	-12617
▁Si	-12618
▁Pent	-12619
▁PRO	-12620
▁apple	-12621
▁dozens	-12622
▁rating	-12623
▁banking	-12624
▁Ches	-12625
▁Vacc	-12626
▁Hudson	-12627
▁Manual	-12628
▁retrie	-12629
▁advocate	-12630
bound	-12631
▁employer	-12632
▁Telescope	-12633
▁carp	-12634
▁dedu	-12635
▁Avenue	-12636
▁dot	-12637
▁Subject	-12638
▁investigating	-12639
link	-12640
▁efficacy	-12641
▁cel	-12642
▁ram	-12643
▁processor	-12644
▁Moscow	-12645
▁Doctors	-12646
aman	-12647
week	-12648
▁Fat	-12649
▁q	-12650
ulent	-12651
▁Soon	-12652
▁missed	-12653
▁Democrats	-12654
tech	-12655
imental	-12656
▁pupils	-12657
▁seaf	-12658
▁grey	-12659
▁peas	-12660
▁builds	-12661
▁identifies	-12662
▁depicted	-12663
▁injected	-12664
▁assignments	-12665
▁pests	-12666
▁Friends	-12667
▁Constant	-12668
asm	-12669
▁DE	-12670
▁arose	-12671
▁volcano	-12672
▁compress	-12673
▁profits	-12674
▁neighboring	-12675
dy	-12676
▁Late	-12677
▁festival	-12678
▁interference	-12679
▁Tips	-12680
▁armies	-12681
▁microb	-12682
▁permanently	-12683
MC	-12684
▁saturated	-12685
estab	-12686
▁wounds	-12687
▁gaining	-12688
Do	-12689
orb	-12690
▁tale	-12691
▁legally	-12692
▁struggling	-12693
▁Ridge	-12694
▁penalty	-12695
Can	-12696
aic	-12697
ardo	-12698
urally	-12699
▁monop	-12700
▁worms	-12701
▁commerce	-12702
▁Ye	-12703
▁enroll	-12704
▁organisations	-12705
aments	-12706
ignant	-12707
▁Malays	-12708
▁fifteen	-12709
OG	-12710
aran	-12711
▁oct	-12712
▁distract	-12713
▁inclusion	-12714
▁instructor	-12715
cerpt	-12716
▁competing	-12717
▁citizenship	-12718
▁compression	-12719
uto	-12720
lict	-12721
asury	-12722
▁silent	-12723
vance	-12724
▁addiction	-12725
▁Lyn	-12726
▁Capital	-12727
▁texture	-12728
▁passenger	-12729
.—	-12730
▁combining	-12731
▁Handbook	-12732
DC	-12733
fil	-12734
▁worried	-12735
ipt	-12736
asia	-12737
abetic	-12738
▁reconstruct	-12739
▁ly	-12740
▁polymer	-12741
▁certification	-12742
▁ib	-12743
With	-12744
hend	-12745
▁photography	-12746
▁conceptual	-12747
▁instructional	-12748
arming	-12749
ibration	-12750
▁physiological	-12751
▁weed	-12752
▁chains	-12753
▁examines	-12754
▁rendered	-12755
▁spectacular	-12756
▁reluct	-12757
▁lectures	-12758
onge	-12759
prot	-12760
▁Brian	-12761
▁longest	-12762
uming	-12763
▁Silver	-12764
▁breathe	-12765
▁ecl	-12766
▁unst	-12767
tebrates	-12768
▁cultivated	-12769
▁Isaac	-12770
▁fusion	-12771
▁nurses	-12772
▁sulfur	-12773
▁standardized	-12774
▁thir	-12775
▁preschool	-12776
coma	-12777
▁approaching	-12778
umph	-12779
▁artic	-12780
▁Popular	-12781
▁lig	-12782
▁fraud	-12783
▁Canyon	-12784
▁servers	-12785
educ	-12786
▁Lang	-12787
▁burial	-12788
▁transported	-12789
▁laboratories	-12790
▁None	-12791
▁Explore	-12792
▁comprised	-12793
OH	-12794
▁demanded	-12795
▁motivated	-12796
rac	-12797
▁Province	-12798
▁mant	-12799
threat	-12800
▁organisation	-12801
opath	-12802
orescent	-12803
▁Thailand	-12804
lear	-12805
▁presentations	-12806
ophren	-12807
▁signature	-12808
▁stamp	-12809
▁fathers	-12810
hol	-12811
pox	-12812
▁gum	-12813
▁Mason	-12814
▁tries	-12815
▁coupled	-12816
sels	-12817
iencies	-12818
▁skilled	-12819
▁terrestrial	-12820
bone	-12821
▁Write	-12822
,’	-12823
▁lean	-12824
powered	-12825
▁crystals	-12826
▁SE	-12827
when	-12828
▁allies	-12829
▁turtles	-12830
▁twe	-12831
welling	-12832
▁desper	-12833
▁horizon	-12834
▁joining	-12835
weed	-12836
▁Together	-12837
▁intrig	-12838
▁Mas	-12839
▁energ	-12840
▁bottles	-12841
▁exports	-12842
▁lets	-12843
▁Mort	-12844
▁flags	-12845
▁incons	-12846
▁hygiene	-12847
▁suppose	-12848
▁uncommon	-12849
GA	-12850
▁oak	-12851
▁Parkinson	-12852
▁Wet	-12853
▁geological	-12854
▁inequality	-12855
▁inevitable	-12856
fund	-12857
sonian	-12858
▁chromosomes	-12859
▁quantitative	-12860
▁impairment	-12861
Jan	-12862
okes	-12863
▁epit	-12864
▁acted	-12865
rill	-12866
▁suited	-12867
▁Brun	-12868
▁pseud	-12869
▁Row	-12870
▁Cart	-12871
▁pathway	-12872
▁protocols	-12873
▁Minor	-12874
izophren	-12875
▁expenses	-12876
▁wishes	-12877
▁dub	-12878
imated	-12879
▁besides	-12880
▁Activities	-12881
▁Od	-12882
▁Legisl	-12883
▁Anthony	-12884
iasis	-12885
▁Surgery	-12886
▁closing	-12887
▁veterans	-12888
▁carbohydrates	-12889
▁Getting	-12890
▁Register	-12891
isan	-12892
▁todd	-12893
▁Barbara	-12894
▁iP	-12895
stan	-12896
▁jaw	-12897
▁mobility	-12898
▁Fortunately	-12899
▁Buff	-12900
▁reliability	-12901
▁ancestor	-12902
▁cemetery	-12903
elta	-12904
▁Pack	-12905
▁underm	-12906
mont	-12907
imity	-12908
▁gradual	-12909
▁Syndrome	-12910
▁counseling	-12911
ranes	-12912
▁dishes	-12913
▁analyzing	-12914
▁comet	-12915
▁prejud	-12916
▁voices	-12917
▁biblical	-12918
▁routinely	-12919
erenn	-12920
▁Seven	-12921
▁fright	-12922
▁accumulation	-12923
▁gover	-12924
▁radius	-12925
▁categor	-12926
stud	-12927
▁mph	-12928
▁Columbus	-12929
▁boom	-12930
▁Frequ	-12931
▁runoff	-12932
▁Exercise	-12933
▁intestinal	-12934
▁clues	-12935
▁uterus	-12936
▁combustion	-12937
ben	-12938
▁Bry	-12939
ocide	-12940
▁eager	-12941
▁inferior	-12942
▁parameter	-12943
”)	-12944
utter	-12945
▁Bear	-12946
▁stir	-12947
▁Hubble	-12948
▁Peru	-12949
▁tent	-12950
gencies	-12951
▁checking	-12952
▁instinct	-12953
▁Atmosp	-12954
▁praise	-12955
▁Americas	-12956
▁righteous	-12957
▁mysterious	-12958
▁scans	-12959
▁daughters	-12960
▁pharmaceut	-12961
▁Institution	-12962
▁SO	-12963
▁counting	-12964
▁explores	-12965
▁affordable	-12966
▁Transportation	-12967
▁sink	-12968
▁Michel	-12969
▁workshops	-12970
Com	-12971
adows	-12972
▁Galile	-12973
▁concentrate	-12974
▁dignity	-12975
▁editing	-12976
▁neurological	-12977
igious	-12978
▁microbes	-12979
▁translate	-12980
▁voted	-12981
▁Commonwealth	-12982
▁Facts	-12983
▁submar	-12984
▁Tow	-12985
▁Truth	-12986
▁considers	-12987
▁mad	-12988
▁burns	-12989
FF	-12990
ixty	-12991
▁bulbs	-12992
▁dolph	-12993
▁Morgan	-12994
due	-12995
count	-12996
articles	-12997
▁isot	-12998
▁charts	-12999
▁congest	-13000
unciation	-13001
▁adjusted	-13002
▁judicial	-13003
▁admit	-13004
Us	-13005
card	-13006
grad	-13007
▁formats	-13008
▁shifts	-13009
ergarten	-13010
▁triangle	-13011
▁trillion	-13012
▁Range	-13013
▁bureau	-13014
▁utilized	-13015
▁satisfaction	-13016
▁bugs	-13017
▁underwater	-13018
AV	-13019
▁remn	-13020
▁thumb	-13021
▁periodic	-13022
▁insulation	-13023
rov	-13024
ante	-13025
endent	-13026
▁singular	-13027
▁inflammatory	-13028
idency	-13029
▁Anglo	-13030
▁caffe	-13031
▁reactor	-13032
▁Peninsula	-13033
▁methodology	-13034
ricanes	-13035
▁contest	-13036
▁contacts	-13037
▁commissioned	-13038
inflamm	-13039
▁memorial	-13040
acity	-13041
▁File	-13042
▁Saud	-13043
▁Term	-13044
lie	-13045
▁Ka	-13046
ramid	-13047
▁nearest	-13048
▁Stra	-13049
▁neuros	-13050
▁landscapes	-13051
▁Scientist	-13052
itational	-13053
▁coronary	-13054
▁Tech	-13055
▁tear	-13056
▁menstru	-13057
oria	-13058
▁bench	-13059
▁Nelson	-13060
▁tide	-13061
▁lighter	-13062
▁mosquito	-13063
▁USS	-13064
storm	-13065
▁Brig	-13066
▁cubic	-13067
▁Impact	-13068
▁prophet	-13069
▁wre	-13070
▁promises	-13071
▁exploitation	-13072
som	-13073
▁Images	-13074
▁Ta	-13075
mates	-13076
▁Pred	-13077
▁brut	-13078
▁info	-13079
▁specially	-13080
▁definitive	-13081
rish	-13082
rings	-13083
▁grad	-13084
▁thee	-13085
▁inability	-13086
▁preventive	-13087
▁kne	-13088
▁Recently	-13089
▁glow	-13090
▁norm	-13091
▁appar	-13092
idel	-13093
atern	-13094
▁aids	-13095
▁Theod	-13096
▁mixing	-13097
▁depressed	-13098
▁triggered	-13099
▁preference	-13100
ignty	-13101
▁concludes	-13102
▁Dead	-13103
▁knock	-13104
▁Personal	-13105
▁''	-13106
annah	-13107
▁intens	-13108
▁immunity	-13109
gic	-13110
ista	-13111
▁Few	-13112
▁cher	-13113
▁hate	-13114
▁astronauts	-13115
▁Flight	-13116
▁Alt	-13117
ilies	-13118
▁Brah	-13119
▁behave	-13120
▁rulers	-13121
▁uncons	-13122
comput	-13123
▁Robinson	-13124
▁priorities	-13125
▁calculation	-13126
▁introducing	-13127
aunt	-13128
news	-13129
▁Tests	-13130
▁archive	-13131
▁investigators	-13132
▁Recon	-13133
▁emphasized	-13134
▁Chris	-13135
▁Divine	-13136
note	-13137
▁cum	-13138
species	-13139
▁Everyone	-13140
▁parasites	-13141
ello	-13142
amily	-13143
▁recreational	-13144
▁au	-13145
▁minorities	-13146
▁Bed	-13147
▁hack	-13148
ashing	-13149
uz	-13150
bestos	-13151
▁interven	-13152
▁declaration	-13153
▁”	-13154
gel	-13155
phones	-13156
▁elaborate	-13157
▁emphasize	-13158
Go	-13159
erk	-13160
chell	-13161
▁audi	-13162
orpor	-13163
▁odds	-13164
▁temporal	-13165
▁governing	-13166
▁linguistic	-13167
▁modification	-13168
▁checks	-13169
▁ultrasound	-13170
▁Birds	-13171
oz	-13172
▁algorithms	-13173
▁Scripture	-13174
▁accommodate	-13175
▁surprisingly	-13176
ochemical	-13177
▁decreasing	-13178
rea	-13179
mble	-13180
uter	-13181
▁ger	-13182
▁theor	-13183
▁relie	-13184
▁monetary	-13185
maker	-13186
roads	-13187
▁clergy	-13188
▁electromagnetic	-13189
hn	-13190
▁faithful	-13191
▁northwest	-13192
Apr	-13193
▁intu	-13194
▁Choose	-13195
▁fertile	-13196
▁Thompson	-13197
mith	-13198
▁elite	-13199
▁commanded	-13200
▁respected	-13201
▁obtaining	-13202
▁seism	-13203
herence	-13204
▁hollow	-13205
▁walked	-13206
▁Greenland	-13207
attan	-13208
▁lapt	-13209
▁Patri	-13210
▁draws	-13211
▁forum	-13212
▁dischar	-13213
▁flights	-13214
▁Industry	-13215
▁Norman	-13216
▁tended	-13217
▁Fest	-13218
▁weeds	-13219
▁SQL	-13220
▁Faith	-13221
▁escaped	-13222
▁Wel	-13223
▁Task	-13224
▁fits	-13225
▁stro	-13226
▁networking	-13227
iege	-13228
▁dissolved	-13229
▁factories	-13230
atics	-13231
▁Harbor	-13232
▁Issues	-13233
▁revision	-13234
▁Acts	-13235
▁orth	-13236
▁momentum	-13237
▁LE	-13238
▁aboard	-13239
▁Tun	-13240
▁Academic	-13241
▁anyway	-13242
▁potent	-13243
▁Ts	-13244
▁frames	-13245
▁museums	-13246
▁recommendation	-13247
clamation	-13248
step	-13249
mid	-13250
wich	-13251
▁pear	-13252
▁seventh	-13253
▁rehabilitation	-13254
▁Dark	-13255
▁fees	-13256
▁individ	-13257
eva	-13258
backs	-13259
▁Stew	-13260
▁cortex	-13261
mother	-13262
obacter	-13263
▁Overall	-13264
▁homosex	-13265
▁sensation	-13266
▁Cas	-13267
birds	-13268
▁Member	-13269
▁Consult	-13270
▁temples	-13271
▁shooting	-13272
▁incredible	-13273
▁Cust	-13274
▁Thor	-13275
▁folks	-13276
▁purple	-13277
doc	-13278
▁iv	-13279
itched	-13280
▁Infant	-13281
▁eliminating	-13282
pus	-13283
▁Eating	-13284
▁kernel	-13285
▁pulmonary	-13286
▁counted	-13287
▁DS	-13288
▁McD	-13289
▁Khan	-13290
▁Johns	-13291
▁claiming	-13292
▁resemble	-13293
▁subjected	-13294
▁sanitation	-13295
▁Run	-13296
▁worthy	-13297
▁diamond	-13298
▁Portugal	-13299
Aug	-13300
speed	-13301
▁landf	-13302
▁Market	-13303
▁Methods	-13304
ativity	-13305
▁Sources	-13306
▁beaches	-13307
▁conquest	-13308
▁accounted	-13309
itime	-13310
▁Arabia	-13311
▁handful	-13312
Oct	-13313
worm	-13314
▁Else	-13315
▁Territory	-13316
▁declining	-13317
▁Communications	-13318
▁Madison	-13319
▁prediction	-13320
▁rhe	-13321
Day	-13322
oni	-13323
▁breakdown	-13324
▁statue	-13325
▁philosopher	-13326
▁lenses	-13327
▁obstacles	-13328
fin	-13329
▁prototype	-13330
▁Typically	-13331
▁lamp	-13332
▁syll	-13333
Christ	-13334
▁donor	-13335
▁abandon	-13336
▁bridges	-13337
▁entreprene	-13338
▁appreciation	-13339
▁Occup	-13340
▁fungi	-13341
▁metall	-13342
▁planetary	-13343
▁administrators	-13344
▁fungus	-13345
ti	-13346
▁zo	-13347
▁shots	-13348
▁fundament	-13349
▁offensive	-13350
▁Emb	-13351
▁hell	-13352
▁Breast	-13353
▁railway	-13354
▁secured	-13355
▁harmony	-13356
▁utilize	-13357
▁matching	-13358
▁limestone	-13359
▁dye	-13360
▁strongest	-13361
▁Citiz	-13362
▁Jenn	-13363
▁evolve	-13364
▁Communication	-13365
▁Naval	-13366
▁Gordon	-13367
▁rolling	-13368
▁presenting	-13369
control	-13370
▁Leaders	-13371
odus	-13372
▁erected	-13373
▁thunder	-13374
▁urinary	-13375
ograms	-13376
▁ambit	-13377
▁Puerto	-13378
▁probable	-13379
▁remainder	-13380
retion	-13381
▁Habit	-13382
▁stakeholders	-13383
Int	-13384
▁PV	-13385
▁pile	-13386
▁Alfred	-13387
▁overseas	-13388
▁athe	-13389
▁deployed	-13390
▁Foot	-13391
▁compelling	-13392
▁disappoint	-13393
▁pupp	-13394
▁pipeline	-13395
Te	-13396
▁Draw	-13397
▁Character	-13398
yg	-13399
▁Autism	-13400
rod	-13401
▁Swiss	-13402
▁Jonathan	-13403
▁approached	-13404
▁cultivation	-13405
artz	-13406
▁Flore	-13407
aga	-13408
autions	-13409
▁supervision	-13410
roit	-13411
▁Hyp	-13412
▁Prob	-13413
▁conve	-13414
▁Harris	-13415
▁dreams	-13416
▁noting	-13417
▁upward	-13418
▁Success	-13419
forward	-13420
nex	-13421
▁tourist	-13422
▁Insp	-13423
▁Requ	-13424
▁hoping	-13425
▁Ps	-13426
▁TR	-13427
direct	-13428
▁Infect	-13429
▁archives	-13430
▁Doctor	-13431
▁solved	-13432
expl	-13433
▁cargo	-13434
▁teles	-13435
▁upset	-13436
▁careers	-13437
fol	-13438
▁Left	-13439
▁Benef	-13440
▁portable	-13441
▁assessing	-13442
▁woods	-13443
▁publish	-13444
▁refined	-13445
▁Definition	-13446
▁depict	-13447
▁resort	-13448
▁Highway	-13449
▁manuscripts	-13450
▁omega	-13451
▁failing	-13452
▁Stev	-13453
▁Channel	-13454
▁ministry	-13455
▁autumn	-13456
▁mosquitoes	-13457
▁stimulation	-13458
▁ants	-13459
▁excluded	-13460
▁Alban	-13461
▁compassion	-13462
▁highlighted	-13463
uzz	-13464
▁Gregory	-13465
▁portrait	-13466
ulse	-13467
width	-13468
▁Illust	-13469
eger	-13470
ushes	-13471
▁Gram	-13472
azines	-13473
abited	-13474
▁limbs	-13475
▁outdoors	-13476
▁magnesium	-13477
via	-13478
▁Jos	-13479
▁bug	-13480
▁pursuit	-13481
▁preceding	-13482
dec	-13483
eda	-13484
sea	-13485
▁True	-13486
▁Phill	-13487
▁riding	-13488
▁stocks	-13489
▁tragedy	-13490
▁shuttle	-13491
raul	-13492
▁dens	-13493
▁producer	-13494
▁Spect	-13495
▁justify	-13496
▁Tokyo	-13497
▁alpha	-13498
▁jun	-13499
idney	-13500
▁coli	-13501
▁northeast	-13502
▁pesticide	-13503
▁wheels	-13504
▁commentary	-13505
▁purchasing	-13506
▁dia	-13507
▁Better	-13508
▁coalition	-13509
verages	-13510
▁potato	-13511
▁politically	-13512
▁psychiatric	-13513
anus	-13514
▁dece	-13515
▁schemes	-13516
usc	-13517
▁Gab	-13518
▁Soil	-13519
▁Square	-13520
▁balloon	-13521
▁exhibits	-13522
▁binary	-13523
▁socially	-13524
▁companion	-13525
osaur	-13526
▁morality	-13527
▁Tob	-13528
▁Version	-13529
▁everybody	-13530
▁placement	-13531
vas	-13532
raska	-13533
ulture	-13534
▁firmly	-13535
esthesia	-13536
▁charity	-13537
▁compromise	-13538
laim	-13539
▁Len	-13540
arity	-13541
itated	-13542
ugar	-13543
▁lux	-13544
▁craw	-13545
▁Eight	-13546
Sc	-13547
olit	-13548
▁Cav	-13549
▁bon	-13550
▁snakes	-13551
▁superf	-13552
▁thrive	-13553
▁estrogen	-13554
▁commercially	-13555
math	-13556
▁Ped	-13557
▁bibli	-13558
▁Castle	-13559
▁monarch	-13560
controlled	-13561
▁appearing	-13562
div	-13563
lades	-13564
overs	-13565
aceous	-13566
▁Animals	-13567
▁inspect	-13568
▁extracted	-13569
▁biologists	-13570
▁certificate	-13571
▁pour	-13572
style	-13573
▁delicate	-13574
▁cock	-13575
▁nesting	-13576
▁Ru	-13577
▁Pel	-13578
group	-13579
letal	-13580
umm	-13581
ilization	-13582
▁Software	-13583
▁stretching	-13584
▁Issue	-13585
▁Concer	-13586
▁racism	-13587
▁nasal	-13588
▁shelf	-13589
▁microw	-13590
▁Ecology	-13591
▁corrupt	-13592
▁grasses	-13593
▁triggers	-13594
immune	-13595
▁drill	-13596
▁achievements	-13597
▁Ple	-13598
imeters	-13599
▁offshore	-13600
▁barely	-13601
▁Cornell	-13602
▁simulations	-13603
▁Nig	-13604
▁endorse	-13605
▁traced	-13606
▁southwest	-13607
▁scrap	-13608
▁breakthrough	-13609
▁counterparts	-13610
UD	-13611
uly	-13612
index	-13613
▁Falls	-13614
otional	-13615
▁Desert	-13616
▁Update	-13617
▁glaciers	-13618
▁perceive	-13619
▁empirical	-13620
▁destroying	-13621
eing	-13622
orrh	-13623
▁reass	-13624
▁serial	-13625
▁lightning	-13626
ESCO	-13627
▁Beth	-13628
izational	-13629
▁Cert	-13630
▁cereb	-13631
▁heading	-13632
▁servants	-13633
▁pipes	-13634
▁Ga	-13635
alling	-13636
headed	-13637
semble	-13638
▁drama	-13639
expensive	-13640
▁surrender	-13641
▁comprehension	-13642
PT	-13643
▁cram	-13644
▁wires	-13645
▁births	-13646
▁Campbell	-13647
▁stimulus	-13648
▁stopping	-13649
▁IR	-13650
posure	-13651
▁caring	-13652
▁SH	-13653
▁hits	-13654
▁Signs	-13655
▁synthes	-13656
aders	-13657
▁Guinea	-13658
▁Coord	-13659
ensis	-13660
▁arrow	-13661
▁exceeding	-13662
▁salvation	-13663
▁LA	-13664
▁Ath	-13665
▁Shah	-13666
▁Temper	-13667
▁staying	-13668
▁birthday	-13669
▁platforms	-13670
▁correspondence	-13671
piece	-13672
▁lion	-13673
▁cooler	-13674
tered	-13675
▁Nevada	-13676
▁arises	-13677
▁decent	-13678
▁subsidies	-13679
▁Rabbi	-13680
▁meg	-13681
▁Juan	-13682
▁abst	-13683
ossary	-13684
riages	-13685
▁inland	-13686
pine	-13687
▁sins	-13688
▁wool	-13689
▁embod	-13690
onder	-13691
▁verses	-13692
▁Universal	-13693
▁Engineers	-13694
▁Om	-13695
▁Brand	-13696
chester	-13697
▁exposures	-13698
▁Phoen	-13699
▁burst	-13700
▁Publications	-13701
▁Austrian	-13702
▁Harrison	-13703
▁organizing	-13704
▁Topics	-13705
▁hemisphere	-13706
▁cups	-13707
General	-13708
race	-13709
ragon	-13710
rosis	-13711
▁safegu	-13712
▁quarters	-13713
atis	-13714
axis	-13715
▁enacted	-13716
▁Arn	-13717
▁Bron	-13718
▁extrem	-13719
weg	-13720
▁rif	-13721
▁Lesson	-13722
ifiable	-13723
▁Principles	-13724
▁withdrawal	-13725
ader	-13726
▁luck	-13727
▁canon	-13728
biology	-13729
▁Republicans	-13730
▁CM	-13731
▁deck	-13732
▁Advent	-13733
▁Mormon	-13734
▁Eld	-13735
▁territorial	-13736
▁activated	-13737
oton	-13738
▁Safe	-13739
▁Walker	-13740
▁patron	-13741
ALL	-13742
pen	-13743
exts	-13744
▁Perm	-13745
▁newer	-13746
▁Forces	-13747
▁inputs	-13748
▁centres	-13749
▁endemic	-13750
▁Railroad	-13751
▁southeast	-13752
▁Areas	-13753
▁carved	-13754
▁ultraviolet	-13755
▁rigid	-13756
▁ambitious	-13757
▁neighborhoods	-13758
ttes	-13759
rator	-13760
▁defect	-13761
▁cylinder	-13762
lihood	-13763
▁Estab	-13764
▁hierarchy	-13765
vic	-13766
▁Memory	-13767
▁Delaware	-13768
proof	-13769
▁bowl	-13770
▁yards	-13771
▁differs	-13772
▁linking	-13773
▁provincial	-13774
HC	-13775
iguous	-13776
▁prize	-13777
▁constell	-13778
ril	-13779
mile	-13780
itives	-13781
▁Effect	-13782
▁pandemic	-13783
▁satisfied	-13784
avy	-13785
▁sits	-13786
ository	-13787
▁Born	-13788
▁edit	-13789
▁thrust	-13790
▁Prep	-13791
▁Changes	-13792
bin	-13793
his	-13794
brev	-13795
▁trop	-13796
▁enrolled	-13797
▁BL	-13798
▁Papers	-13799
threatening	-13800
rer	-13801
▁ISS	-13802
▁Gent	-13803
▁Colomb	-13804
▁wetland	-13805
▁selecting	-13806
ioned	-13807
▁Side	-13808
▁genealog	-13809
nas	-13810
forming	-13811
limited	-13812
▁Compan	-13813
▁Campaign	-13814
▁crystall	-13815
▁generates	-13816
▁neglect	-13817
▁nevertheless	-13818
may	-13819
▁monks	-13820
▁hostile	-13821
''	-13822
WA	-13823
erred	-13824
▁Mike	-13825
▁eman	-13826
▁Bruce	-13827
▁matches	-13828
yst	-13829
▁Shel	-13830
uncture	-13831
▁documentary	-13832
▁respondents	-13833
▁silence	-13834
▁similarities	-13835
ilepsy	-13836
▁clinic	-13837
▁slopes	-13838
▁Senator	-13839
▁dynasty	-13840
▁enlarged	-13841
▁Vienna	-13842
▁handled	-13843
▁cyt	-13844
▁undergraduate	-13845
National	-13846
▁illustration	-13847
▁Et	-13848
ulatory	-13849
▁actors	-13850
▁palace	-13851
▁refuse	-13852
home	-13853
▁lag	-13854
▁limb	-13855
iating	-13856
▁Belgium	-13857
▁monkeys	-13858
▁constitutes	-13859
▁equilibrium	-13860
site	-13861
▁Vin	-13862
▁panic	-13863
VER	-13864
nosis	-13865
▁peripheral	-13866
SC	-13867
minute	-13868
▁Baptist	-13869
▁Express	-13870
▁gig	-13871
amics	-13872
▁Mamm	-13873
apolis	-13874
ifiers	-13875
▁Webster	-13876
▁weakened	-13877
▁mol	-13878
edience	-13879
▁disciples	-13880
▁deaf	-13881
▁advocacy	-13882
▁pod	-13883
ijing	-13884
system	-13885
▁princip	-13886
▁spotted	-13887
▁Conditions	-13888
otive	-13889
▁disagree	-13890
▁governed	-13891
▁individually	-13892
▁propri	-13893
▁Testing	-13894
▁recognised	-13895
▁succession	-13896
▁failures	-13897
▁entertainment	-13898
▁orch	-13899
rehend	-13900
rinted	-13901
▁Organic	-13902
▁prayers	-13903
és	-13904
▁lasts	-13905
▁drum	-13906
▁grab	-13907
▁Categ	-13908
▁Hold	-13909
▁airplane	-13910
▁belonged	-13911
Ne	-13912
wick	-13913
bling	-13914
cession	-13915
▁Compet	-13916
▁balls	-13917
▁puzzle	-13918
▁contexts	-13919
▁freezing	-13920
onomous	-13921
▁Chronic	-13922
▁fox	-13923
▁Anat	-13924
▁Weight	-13925
▁enrich	-13926
bons	-13927
ollen	-13928
riving	-13929
▁Stage	-13930
▁cathe	-13931
▁Peters	-13932
--------	-13933
▁weekend	-13934
▁differential	-13935
▁Problem	-13936
▁strengths	-13937
▁urged	-13938
▁Nazis	-13939
▁Against	-13940
▁Finland	-13941
▁Southwest	-13942
▁displaced	-13943
▁tears	-13944
▁Determ	-13945
▁alliance	-13946
▁turbines	-13947
▁Assistant	-13948
mans	-13949
pack	-13950
▁Banglades	-13951
▁responding	-13952
▁EM	-13953
▁Band	-13954
▁Lith	-13955
▁aerial	-13956
▁relies	-13957
▁witnessed	-13958
▁wolves	-13959
▁Confeder	-13960
▁pist	-13961
▁Thank	-13962
▁dealt	-13963
▁Athens	-13964
▁caffeine	-13965
▁dos	-13966
▁sovereignty	-13967
▁accompanying	-13968
ml	-13969
▁marker	-13970
▁Volunte	-13971
izophrenia	-13972
tein	-13973
▁packaging	-13974
▁governance	-13975
▁structured	-13976
disciplinary	-13977
▁humanitarian	-13978
▁tuberculosis	-13979
etric	-13980
▁Horn	-13981
▁damp	-13982
▁Things	-13983
▁envelop	-13984
▁turbine	-13985
▁Nebraska	-13986
▁outlined	-13987
▁MR	-13988
ringe	-13989
▁pencil	-13990
▁declare	-13991
uters	-13992
▁pilgrim	-13993
▁occupational	-13994
enez	-13995
▁packed	-13996
▁fractures	-13997
▁tags	-13998
▁Course	-13999
ilingual	-14000
▁tourists	-14001
ARS	-14002
▁plains	-14003
▁Colonel	-14004
inge	-14005
▁civ	-14006
vised	-14007
▁boot	-14008
▁lawn	-14009
▁grasp	-14010
▁garbage	-14011
▁Multiple	-14012
▁investors	-14013
▁administer	-14014
▁obligations	-14015
inar	-14016
aying	-14017
veland	-14018
▁Delta	-14019
▁geology	-14020
?)	-14021
▁GNU	-14022
▁histories	-14023
▁philosophers	-14024
▁bod	-14025
▁Easter	-14026
▁castle	-14027
▁completing	-14028
▁Idaho	-14029
▁washed	-14030
▁pumps	-14031
▁Allied	-14032
▁Comments	-14033
▁gravitational	-14034
course	-14035
▁Growth	-14036
▁variant	-14037
▁compatible	-14038
▁Intelligence	-14039
obi	-14040
▁Ul	-14041
▁Epid	-14042
▁Used	-14043
▁bulb	-14044
▁toilet	-14045
▁inappropriate	-14046
▁soda	-14047
▁baseline	-14048
▁pressing	-14049
▁arbitrary	-14050
▁Associated	-14051
▁Elementary	-14052
▁Raj	-14053
▁Rule	-14054
itol	-14055
▁posed	-14056
▁Interior	-14057
▁Alexandria	-14058
▁Save	-14059
▁rhet	-14060
▁climb	-14061
▁variants	-14062
▁Byzantine	-14063
outheastern	-14064
cost	-14065
▁flew	-14066
▁hect	-14067
▁Roy	-14068
▁anticipated	-14069
▁ps	-14070
▁Saudi	-14071
size	-14072
▁Abd	-14073
▁teenagers	-14074
▁Endangered	-14075
▁coordinates	-14076
Mar	-14077
osaic	-14078
▁Pale	-14079
▁antiqu	-14080
▁designer	-14081
▁wastewater	-14082
half	-14083
▁reply	-14084
▁steadily	-14085
▁treasure	-14086
▁meditation	-14087
rians	-14088
▁rape	-14089
▁macro	-14090
▁redist	-14091
mind	-14092
▁Experts	-14093
▁Influ	-14094
▁harvesting	-14095
▁Smithsonian	-14096
PM	-14097
▁Pic	-14098
birth	-14099
lighten	-14100
▁sugars	-14101
▁Iceland	-14102
▁frontier	-14103
▁mitochond	-14104
▁Stu	-14105
▁piano	-14106
oglobin	-14107
▁Meeting	-14108
▁empower	-14109
▁colours	-14110
▁Flood	-14111
▁Radiation	-14112
Am	-14113
▁wolf	-14114
▁trucks	-14115
▁successor	-14116
NG	-14117
▁seizure	-14118
▁baseball	-14119
▁prompted	-14120
▁Palestinian	-14121
Why	-14122
▁iod	-14123
▁Lank	-14124
building	-14125
ennial	-14126
▁moder	-14127
▁desires	-14128
▁generic	-14129
ographies	-14130
▁Nicholas	-14131
▁yesterday	-14132
▁HE	-14133
▁Sky	-14134
itects	-14135
▁Trail	-14136
▁induce	-14137
▁termed	-14138
▁Publication	-14139
▁bike	-14140
▁prints	-14141
▁citation	-14142
▁deposited	-14143
▁textbooks	-14144
▁Too	-14145
▁Analy	-14146
▁inspection	-14147
cha	-14148
▁Heat	-14149
▁incomplete	-14150
far	-14151
▁Ali	-14152
arson	-14153
▁DVD	-14154
▁kills	-14155
▁conceived	-14156
▁Ltd	-14157
▁rebellion	-14158
++	-14159
▁IA	-14160
cler	-14161
▁Karl	-14162
▁grat	-14163
ounding	-14164
▁excite	-14165
▁basics	-14166
▁nobody	-14167
▁practically	-14168
▁rust	-14169
▁arche	-14170
▁hotel	-14171
▁exotic	-14172
▁Applied	-14173
▁Concept	-14174
▁Religious	-14175
▁Laws	-14176
▁Poor	-14177
▁vend	-14178
▁Python	-14179
▁poster	-14180
▁missile	-14181
iii	-14182
▁fracture	-14183
▁bloodstream	-14184
zi	-14185
heim	-14186
alities	-14187
▁propaganda	-14188
dem	-14189
▁Dry	-14190
▁logging	-14191
▁beverages	-14192
▁immigrant	-14193
▁Improve	-14194
▁reflecting	-14195
▁Roger	-14196
▁marsh	-14197
▁summit	-14198
▁satisfy	-14199
▁civilians	-14200
carbon	-14201
▁cyber	-14202
▁Ethiopia	-14203
▁Napoleon	-14204
▁Innov	-14205
▁Liver	-14206
▁prest	-14207
▁Johann	-14208
▁preserving	-14209
▁troubles	-14210
▁coordinated	-14211
Net	-14212
June	-14213
▁ESA	-14214
▁Geneva	-14215
▁amendment	-14216
▁representations	-14217
▁flaw	-14218
▁touched	-14219
▁harvested	-14220
▁kilometres	-14221
historic	-14222
▁Genetic	-14223
▁EL	-14224
▁appropriately	-14225
bus	-14226
▁SD	-14227
▁Higher	-14228
▁Steven	-14229
▁displace	-14230
▁ions	-14231
▁shops	-14232
▁mening	-14233
▁imports	-14234
atts	-14235
disc	-14236
▁Quant	-14237
▁Clinic	-14238
▁Reform	-14239
▁depths	-14240
▁Roma	-14241
▁likes	-14242
▁Internal	-14243
▁favorable	-14244
▁ignorance	-14245
elle	-14246
irts	-14247
▁membranes	-14248
aro	-14249
gate	-14250
ppers	-14251
▁Focus	-14252
▁gently	-14253
▁leather	-14254
▁validity	-14255
▁Mt	-14256
▁Ot	-14257
Source	-14258
written	-14259
▁antenna	-14260
cclesiast	-14261
▁antibody	-14262
▁utilities	-14263
▁RF	-14264
▁Mir	-14265
▁crater	-14266
▁assisted	-14267
▁aggression	-14268
▁suggestion	-14269
▁Loss	-14270
▁Ther	-14271
▁ponds	-14272
plicity	-14273
▁credits	-14274
PE	-14275
▁goddess	-14276
▁critically	-14277
▁osteoporosis	-14278
ocytes	-14279
▁poles	-14280
▁tomorrow	-14281
▁plag	-14282
▁Haiti	-14283
▁frost	-14284
▁magazines	-14285
dig	-14286
airo	-14287
▁predecess	-14288
▁amphib	-14289
▁stresses	-14290
▁Tam	-14291
apore	-14292
▁coating	-14293
▁wand	-14294
ductor	-14295
▁tonnes	-14296
▁couples	-14297
▁Politics	-14298
▁mathematic	-14299
▁contaminants	-14300
▁silk	-14301
izable	-14302
▁retina	-14303
▁keyboard	-14304
cou	-14305
▁Taiwan	-14306
▁Stevens	-14307
▁monastery	-14308
je	-14309
▁Maj	-14310
▁duct	-14311
▁crafts	-14312
▁livelihood	-14313
xx	-14314
▁Abs	-14315
hattan	-14316
▁Pitts	-14317
▁helic	-14318
▁textbook	-14319
▁selective	-14320
scape	-14321
▁Race	-14322
▁purs	-14323
pher	-14324
ocate	-14325
▁Kenn	-14326
▁hered	-14327
▁bishops	-14328
▁recruit	-14329
▁rounded	-14330
▁observers	-14331
▁partition	-14332
▁dysfunction	-14333
BL	-14334
▁orn	-14335
▁tan	-14336
▁maturity	-14337
▁Costa	-14338
▁resting	-14339
.[	-14340
▁collision	-14341
uana	-14342
▁ideology	-14343
▁mistaken	-14344
▁Cand	-14345
mi	-14346
▁fetus	-14347
▁Barn	-14348
▁marry	-14349
ricular	-14350
▁Complete	-14351
▁Zoo	-14352
▁Measure	-14353
▁untreated	-14354
▁surveyed	-14355
IX	-14356
God	-14357
bishop	-14358
Feb	-14359
pent	-14360
▁Blog	-14361
▁Nurs	-14362
▁Gray	-14363
▁Ward	-14364
▁Scout	-14365
▁possessed	-14366
aire	-14367
▁inaug	-14368
▁Curiosity	-14369
▁recession	-14370
▁fr	-14371
▁Pun	-14372
▁umb	-14373
▁pean	-14374
▁pm	-14375
▁Sens	-14376
ockets	-14377
▁restaurant	-14378
cephal	-14379
oubted	-14380
speaking	-14381
▁airport	-14382
▁Traditional	-14383
graph	-14384
▁unch	-14385
market	-14386
▁cents	-14387
▁capitalism	-14388
ORE	-14389
▁harness	-14390
▁combines	-14391
▁DA	-14392
esar	-14393
▁Nag	-14394
April	-14395
anton	-14396
grass	-14397
▁lady	-14398
iotics	-14399
▁Hills	-14400
▁veterinarian	-14401
▁ell	-14402
ophil	-14403
represent	-14404
▁centered	-14405
orld	-14406
▁parking	-14407
▁shifted	-14408
▁Independent	-14409
town	-14410
▁damages	-14411
▁prospect	-14412
▁flowering	-14413
▁scholarship	-14414
▁coh	-14415
oscopy	-14416
▁glasses	-14417
▁triumph	-14418
▁pancreas	-14419
▁extraction	-14420
▁Atmospheric	-14421
▁consultation	-14422
▁ok	-14423
olen	-14424
▁Types	-14425
▁wherever	-14426
kg	-14427
▁mul	-14428
Europe	-14429
▁Chand	-14430
▁hired	-14431
▁seized	-14432
▁obligation	-14433
arette	-14434
▁Plato	-14435
▁masters	-14436
odia	-14437
eches	-14438
▁hunters	-14439
▁Response	-14440
▁demanding	-14441
organisms	-14442
%),	-14443
▁Smart	-14444
▁myths	-14445
▁honour	-14446
BD	-14447
▁assim	-14448
▁rigorous	-14449
▁imply	-14450
▁Content	-14451
▁Function	-14452
▁elephant	-14453
▁animation	-14454
▁precautions	-14455
LC	-14456
▁worm	-14457
▁composite	-14458
rophy	-14459
▁sickness	-14460
▁inexpensive	-14461
▁innovations	-14462
map	-14463
▁fragile	-14464
▁Construction	-14465
▁Adm	-14466
▁pad	-14467
▁Laure	-14468
▁adulthood	-14469
▁Carter	-14470
▁caves	-14471
▁perenn	-14472
▁holidays	-14473
▁sovereign	-14474
▁editorial	-14475
will	-14476
▁remedy	-14477
▁Cool	-14478
ardship	-14479
▁herbal	-14480
aceae	-14481
▁carn	-14482
hu	-14483
▁Austin	-14484
▁Therapy	-14485
▁conquered	-14486
ouch	-14487
ovak	-14488
▁dams	-14489
▁Server	-14490
▁chairman	-14491
▁Kos	-14492
▁metric	-14493
▁Address	-14494
▁Il	-14495
▁souls	-14496
ificant	-14497
unks	-14498
▁Stories	-14499
▁Various	-14500
ulas	-14501
▁quit	-14502
omorph	-14503
▁queen	-14504
keeping	-14505
▁Active	-14506
▁locked	-14507
▁eruption	-14508
▁magnific	-14509
▁Vice	-14510
▁ruins	-14511
▁unint	-14512
▁harmon	-14513
▁touching	-14514
▁Representatives	-14515
▁ot	-14516
ancial	-14517
vasive	-14518
▁Plains	-14519
▁Liberty	-14520
▁eighth	-14521
breaking	-14522
uru	-14523
▁metaphor	-14524
▁Cole	-14525
▁Kra	-14526
▁las	-14527
▁nests	-14528
▁apples	-14529
▁oscill	-14530
▁adequately	-14531
LD	-14532
olerance	-14533
▁ceiling	-14534
▁sculpture	-14535
▁Nam	-14536
▁complaints	-14537
Comm	-14538
▁Beng	-14539
▁harbor	-14540
ographers	-14541
▁globally	-14542
pi	-14543
▁pools	-14544
▁determin	-14545
aryn	-14546
▁dots	-14547
▁Consumer	-14548
▁questionna	-14549
▁congregation	-14550
▁Dog	-14551
heart	-14552
▁jack	-14553
▁Graph	-14554
▁Photos	-14555
▁replied	-14556
▁Panel	-14557
Some	-14558
hill	-14559
▁surroundings	-14560
▁voyage	-14561
▁Beijing	-14562
▁colorful	-14563
▁synchron	-14564
▁Agreement	-14565
▁exams	-14566
▁olive	-14567
▁echo	-14568
ortium	-14569
▁admission	-14570
▁exit	-14571
▁fitted	-14572
▁clicking	-14573
▁Production	-14574
▁deforestation	-14575
tem	-14576
▁Sad	-14577
▁Sports	-14578
▁telescopes	-14579
opl	-14580
▁stew	-14581
▁intim	-14582
▁renow	-14583
▁hanging	-14584
▁carriers	-14585
▁likewise	-14586
▁comprises	-14587
▁UNESCO	-14588
▁Gand	-14589
▁succ	-14590
▁Baker	-14591
▁Branch	-14592
lessness	-14593
▁sisters	-14594
▁AA	-14595
▁Ug	-14596
▁defence	-14597
▁Molecular	-14598
▁bru	-14599
atson	-14600
▁breeds	-14601
▁urgent	-14602
▁Manhattan	-14603
feld	-14604
ancies	-14605
From	-14606
▁norms	-14607
ondition	-14608
▁equator	-14609
▁err	-14610
▁verify	-14611
▁Genetics	-14612
▁tactics	-14613
▁Products	-14614
▁Bat	-14615
▁fans	-14616
▁Nixon	-14617
▁exceptional	-14618
▁Herm	-14619
engine	-14620
▁Evaluation	-14621
ussian	-14622
▁gauge	-14623
▁Mobile	-14624
▁observer	-14625
▁ordin	-14626
▁manipulation	-14627
▁scler	-14628
[...]
